{
  "version": "1.0",
  "truncation": null,
  "padding": null,
  "added_tokens": [
    {
      "id": 0,
      "content": "<s>",
      "single_word": false,
      "lstrip": false,
      "rstrip": false,
      "normalized": false,
      "special": true
    },
    {
      "id": 1,
      "content": "<pad>",
      "single_word": false,
      "lstrip": false,
      "rstrip": false,
      "normalized": false,
      "special": true
    },
    {
      "id": 2,
      "content": "</s>",
      "single_word": false,
      "lstrip": false,
      "rstrip": false,
      "normalized": false,
      "special": true
    },
    {
      "id": 3,
      "content": "<unk>",
      "single_word": false,
      "lstrip": false,
      "rstrip": false,
      "normalized": false,
      "special": true
    }
  ],
  "normalizer": null,
  "pre_tokenizer": {
    "type": "Sequence",
    "pretokenizers": [
      {
        "type": "ByteLevel",
        "add_prefix_space": true,
        "trim_offsets": true,
        "use_regex": true
      }
    ]
  },
  "post_processor": null,
  "decoder": {
    "type": "Sequence",
    "decoders": [
      {
        "type": "ByteLevel",
        "add_prefix_space": true,
        "trim_offsets": true,
        "use_regex": true
      }
    ]
  },
  "model": {
    "type": "BPE",
    "dropout": null,
    "unk_token": null,
    "continuing_subword_prefix": null,
    "end_of_word_suffix": null,
    "fuse_unk": false,
    "byte_fallback": false,
    "ignore_merges": false,
    "vocab": {
      "<s>": 0,
      "<pad>": 1,
      "</s>": 2,
      "<unk>": 3,
      "!": 4,
      "\"": 5,
      "#": 6,
      "$": 7,
      "%": 8,
      "&": 9,
      "'": 10,
      "(": 11,
      ")": 12,
      "*": 13,
      "+": 14,
      ",": 15,
      "-": 16,
      ".": 17,
      "/": 18,
      "0": 19,
      "1": 20,
      "2": 21,
      "3": 22,
      "4": 23,
      "5": 24,
      "6": 25,
      "7": 26,
      "8": 27,
      "9": 28,
      ":": 29,
      ";": 30,
      "<": 31,
      "=": 32,
      ">": 33,
      "?": 34,
      "@": 35,
      "A": 36,
      "B": 37,
      "C": 38,
      "D": 39,
      "E": 40,
      "F": 41,
      "G": 42,
      "H": 43,
      "I": 44,
      "J": 45,
      "K": 46,
      "L": 47,
      "M": 48,
      "N": 49,
      "O": 50,
      "P": 51,
      "Q": 52,
      "R": 53,
      "S": 54,
      "T": 55,
      "U": 56,
      "V": 57,
      "W": 58,
      "X": 59,
      "Y": 60,
      "Z": 61,
      "[": 62,
      "\\": 63,
      "]": 64,
      "^": 65,
      "_": 66,
      "`": 67,
      "a": 68,
      "b": 69,
      "c": 70,
      "d": 71,
      "e": 72,
      "f": 73,
      "g": 74,
      "h": 75,
      "i": 76,
      "j": 77,
      "k": 78,
      "l": 79,
      "m": 80,
      "n": 81,
      "o": 82,
      "p": 83,
      "q": 84,
      "r": 85,
      "s": 86,
      "t": 87,
      "u": 88,
      "v": 89,
      "w": 90,
      "x": 91,
      "y": 92,
      "z": 93,
      "{": 94,
      "|": 95,
      "}": 96,
      "~": 97,
      "¡": 98,
      "¢": 99,
      "£": 100,
      "¤": 101,
      "¥": 102,
      "¦": 103,
      "§": 104,
      "¨": 105,
      "©": 106,
      "ª": 107,
      "«": 108,
      "¬": 109,
      "®": 110,
      "¯": 111,
      "°": 112,
      "±": 113,
      "²": 114,
      "³": 115,
      "´": 116,
      "µ": 117,
      "¶": 118,
      "·": 119,
      "¸": 120,
      "¹": 121,
      "º": 122,
      "»": 123,
      "¼": 124,
      "½": 125,
      "¾": 126,
      "¿": 127,
      "À": 128,
      "Á": 129,
      "Â": 130,
      "Ã": 131,
      "Ä": 132,
      "Å": 133,
      "Æ": 134,
      "Ç": 135,
      "È": 136,
      "É": 137,
      "Ê": 138,
      "Ë": 139,
      "Ì": 140,
      "Í": 141,
      "Î": 142,
      "Ï": 143,
      "Ð": 144,
      "Ñ": 145,
      "Ò": 146,
      "Ó": 147,
      "Ô": 148,
      "Õ": 149,
      "Ö": 150,
      "×": 151,
      "Ø": 152,
      "Ù": 153,
      "Ú": 154,
      "Û": 155,
      "Ü": 156,
      "Ý": 157,
      "Þ": 158,
      "ß": 159,
      "à": 160,
      "á": 161,
      "â": 162,
      "ã": 163,
      "ä": 164,
      "å": 165,
      "æ": 166,
      "ç": 167,
      "è": 168,
      "é": 169,
      "ê": 170,
      "ë": 171,
      "ì": 172,
      "í": 173,
      "î": 174,
      "ï": 175,
      "ð": 176,
      "ñ": 177,
      "ò": 178,
      "ó": 179,
      "ô": 180,
      "õ": 181,
      "ö": 182,
      "÷": 183,
      "ø": 184,
      "ù": 185,
      "ú": 186,
      "û": 187,
      "ü": 188,
      "ý": 189,
      "þ": 190,
      "ÿ": 191,
      "Ā": 192,
      "ā": 193,
      "Ă": 194,
      "ă": 195,
      "Ą": 196,
      "ą": 197,
      "Ć": 198,
      "ć": 199,
      "Ĉ": 200,
      "ĉ": 201,
      "Ċ": 202,
      "ċ": 203,
      "Č": 204,
      "č": 205,
      "Ď": 206,
      "ď": 207,
      "Đ": 208,
      "đ": 209,
      "Ē": 210,
      "ē": 211,
      "Ĕ": 212,
      "ĕ": 213,
      "Ė": 214,
      "ė": 215,
      "Ę": 216,
      "ę": 217,
      "Ě": 218,
      "ě": 219,
      "Ĝ": 220,
      "ĝ": 221,
      "Ğ": 222,
      "ğ": 223,
      "Ġ": 224,
      "ġ": 225,
      "Ģ": 226,
      "ģ": 227,
      "Ĥ": 228,
      "ĥ": 229,
      "Ħ": 230,
      "ħ": 231,
      "Ĩ": 232,
      "ĩ": 233,
      "Ī": 234,
      "ī": 235,
      "Ĭ": 236,
      "ĭ": 237,
      "Į": 238,
      "į": 239,
      "İ": 240,
      "ı": 241,
      "Ĳ": 242,
      "ĳ": 243,
      "Ĵ": 244,
      "ĵ": 245,
      "Ķ": 246,
      "ķ": 247,
      "ĸ": 248,
      "Ĺ": 249,
      "ĺ": 250,
      "Ļ": 251,
      "ļ": 252,
      "Ľ": 253,
      "ľ": 254,
      "Ŀ": 255,
      "ŀ": 256,
      "Ł": 257,
      "ł": 258,
      "Ń": 259,
      "Ġa": 260,
      "he": 261,
      "in": 262,
      "the": 263,
      "re": 264,
      "Ġthe": 265,
      "on": 266,
      "er": 267,
      "Ġs": 268,
      "Ġw": 269,
      "Ġo": 270,
      "at": 271,
      "nd": 272,
      "Ġc": 273,
      "it": 274,
      "is": 275,
      "or": 276,
      "es": 277,
      "en": 278,
      "Ġf": 279,
      "ou": 280,
      "Ġb": 281,
      "to": 282,
      "ĠĠ": 283,
      "ing": 284,
      "ed": 285,
      "Ġp": 286,
      "an": 287,
      "al": 288,
      "Ġof": 289,
      "Ġto": 290,
      "ar": 291,
      "Ġm": 292,
      "Ġin": 293,
      "Ġand": 294,
      "Ġd": 295,
      "Ġh": 296,
      "le": 297,
      "as": 298,
      "ic": 299,
      "ion": 300,
      "ro": 301,
      "il": 302,
      "ent": 303,
      "Ġl": 304,
      "ĠT": 305,
      "ĠI": 306,
      "Ġe": 307,
      "Ġn": 308,
      "Ġre": 309,
      "om": 310,
      "ve": 311,
      "st": 312,
      "Ġy": 313,
      "ct": 314,
      "ĠS": 315,
      "Ġg": 316,
      "ly": 317,
      "Ġbe": 318,
      "ĠA": 319,
      "ĠC": 320,
      "Ġis": 321,
      "et": 322,
      "âĢ": 323,
      "ut": 324,
      "Ġfor": 325,
      "hat": 326,
      "ĠĠĠĠ": 327,
      "Ġyou": 328,
      "id": 329,
      "Ġon": 330,
      "us": 331,
      "ur": 332,
      "ow": 333,
      "ad": 334,
      "ot": 335,
      "ce": 336,
      "im": 337,
      "am": 338,
      "ay": 339,
      "ol": 340,
      "ig": 341,
      "el": 342,
      "ch": 343,
      "ver": 344,
      "ith": 345,
      "ĠM": 346,
      "ation": 347,
      "that": 348,
      "Ġthat": 349,
      "ir": 350,
      "Ġhe": 351,
      "Ġwith": 352,
      "tr": 353,
      "ĠThe": 354,
      "ĠB": 355,
      "Ġit": 356,
      "ĠP": 357,
      "ter": 358,
      "Ġas": 359,
      "Ġal": 360,
      "ul": 361,
      "ĠW": 362,
      "se": 363,
      "ĠH": 364,
      "Ġan": 365,
      "un": 366,
      "Ġ1": 367,
      "te": 368,
      "if": 369,
      "ta": 370,
      "ge": 371,
      "Ġpro": 372,
      "ill": 373,
      "Ġwas": 374,
      "Ġcon": 375,
      "ĠD": 376,
      "ĠĊ": 377,
      "ers": 378,
      "Ġwe": 379,
      "Ġha": 380,
      "Ġwh": 381,
      "ĠF": 382,
      "ĠR": 383,
      "od": 384,
      "ke": 385,
      "Ġ(": 386,
      "his": 387,
      "ra": 388,
      "ate": 389,
      "Ġare": 390,
      "Ġor": 391,
      "ess": 392,
      "Ġat": 393,
      "pp": 394,
      "âĢĻ": 395,
      "Ġcom": 396,
      "ld": 397,
      "Ġst": 398,
      "ment": 399,
      "ĠL": 400,
      "Ġ2": 401,
      "ac": 402,
      "Ġde": 403,
      "ther": 404,
      "Ġse": 405,
      "igh": 406,
      "ĠE": 407,
      "ĠG": 408,
      "rom": 409,
      "Ġex": 410,
      "qu": 411,
      "est": 412,
      "Ġv": 413,
      "ĠN": 414,
      "ore": 415,
      "pe": 416,
      "um": 417,
      "Ġby": 418,
      "Ġne": 419,
      "ble": 420,
      "ri": 421,
      "res": 422,
      "Ġfrom": 423,
      "ts": 424,
      "ity": 425,
      "Ġsu": 426,
      "ĠO": 427,
      "Ġnot": 428,
      "os": 429,
      "Ġr": 430,
      "Ġhave": 431,
      "ive": 432,
      "Ġsh": 433,
      "this": 434,
      "Ġyour": 435,
      "Ġus": 436,
      "Ġthis": 437,
      "ies": 438,
      "op": 439,
      "all": 440,
      "Ġtr": 441,
      "and": 442,
      "art": 443,
      "ĠĠĠ": 444,
      "ort": 445,
      "red": 446,
      "Ġu": 447,
      "oc": 448,
      "Ġch": 449,
      "ist": 450,
      "em": 451,
      "Ġ\"": 452,
      "ard": 453,
      "Ġcan": 454,
      "ain": 455,
      "iv": 456,
      "ould": 457,
      "Ġle": 458,
      "ant": 459,
      "ĠJ": 460,
      "ust": 461,
      "out": 462,
      "ome": 463,
      "ĠâĢ": 464,
      "gh": 465,
      "our": 466,
      "ight": 467,
      "ren": 468,
      "ud": 469,
      "ich": 470,
      "Ġpl": 471,
      "ine": 472,
      "'s": 473,
      "00": 474,
      "Ġwill": 475,
      "Ġall": 476,
      "ost": 477,
      "fe": 478,
      "ĠIn": 479,
      "ial": 480,
      "ie": 481,
      "ction": 482,
      "Ġwor": 483,
      "ell": 484,
      "ok": 485,
      "ide": 486,
      "Ġhis": 487,
      "rou": 488,
      "ure": 489,
      "per": 490,
      "Ġwhe": 491,
      "Ġk": 492,
      "Ġdo": 493,
      "ip": 494,
      "ag": 495,
      "Ġbut": 496,
      "ĠĠĠĠĠĠĠĠ": 497,
      "ĠU": 498,
      "ast": 499,
      "Ġj": 500,
      "Ġwhich": 501,
      "Ġme": 502,
      "pt": 503,
      "ice": 504,
      "ear": 505,
      "Ġab": 506,
      "Ġcomp": 507,
      "ia": 508,
      "age": 509,
      "ong": 510,
      "ated": 511,
      "Ġad": 512,
      "ind": 513,
      "ame": 514,
      "Ġgo": 515,
      "Ġso": 516,
      "ally": 517,
      "Ġup": 518,
      "Ġhas": 519,
      "oun": 520,
      "tim": 521,
      "ous": 522,
      "lo": 523,
      "ack": 524,
      "Ġma": 525,
      "Ġtheir": 526,
      "ber": 527,
      "Ġlo": 528,
      "Ġout": 529,
      "Ġen": 530,
      "hing": 531,
      "ite": 532,
      "cc": 533,
      "ĠK": 534,
      "ab": 535,
      "Ġthey": 536,
      "Ġone": 537,
      "one": 538,
      "ans": 539,
      "for": 540,
      "ue": 541,
      "Ġ19": 542,
      "very": 543,
      "Ġim": 544,
      "Ġte": 545,
      "tw": 546,
      "Ġhad": 547,
      "Ġmy": 548,
      "Ġun": 549,
      "so": 550,
      "ĠY": 551,
      "ks": 552,
      "Ġman": 553,
      "ap": 554,
      "iz": 555,
      "Ġ20": 556,
      "ance": 557,
      "Ġmore": 558,
      "king": 559,
      "Ġtim": 560,
      "Ġta": 561,
      "ass": 562,
      "ary": 563,
      "ions": 564,
      "ign": 565,
      "Ġwho": 566,
      "han": 567,
      "Ġcl": 568,
      "Ġapp": 569,
      "ire": 570,
      "ll": 571,
      "cl": 572,
      "Ġres": 573,
      "ĠV": 574,
      "ĠIt": 575,
      "av": 576,
      "are": 577,
      "Ġdis": 578,
      "ace": 579,
      "ase": 580,
      "Ġwere": 581,
      "du": 582,
      "ike": 583,
      "Ġour": 584,
      "pl": 585,
      "Ġqu": 586,
      "act": 587,
      "ne": 588,
      "reat": 589,
      "ub": 590,
      "Ġher": 591,
      "ile": 592,
      "able": 593,
      "--": 594,
      "ty": 595,
      "ree": 596,
      "ail": 597,
      "Ġper": 598,
      "ĠHe": 599,
      "og": 600,
      "Ġif": 601,
      "Ġother": 602,
      "ations": 603,
      "Ġar": 604,
      "ach": 605,
      "Ġalso": 606,
      "Ġfe": 607,
      "ĠCh": 608,
      "Ġabout": 609,
      "erv": 610,
      "Ġ3": 611,
      "Ġany": 612,
      "Ġsp": 613,
      "ck": 614,
      "Ġthem": 615,
      "ical": 616,
      "ond": 617,
      "Ġtime": 618,
      "vel": 619,
      "Ġsa": 620,
      "mer": 621,
      "ence": 622,
      "ry": 623,
      "own": 624,
      "Ġthere": 625,
      "Ġsome": 626,
      "ition": 627,
      "ĠâĢľ": 628,
      "Ġbeen": 629,
      "Ġoff": 630,
      "âĢĿ": 631,
      "ian": 632,
      "ish": 633,
      "ff": 634,
      "Ġsc": 635,
      "Ġev": 636,
      "ound": 637,
      "ays": 638,
      "ep": 639,
      "form": 640,
      "Ġwhen": 641,
      "ress": 642,
      "wn": 643,
      "low": 644,
      "ho": 645,
      "Ġro": 646,
      "ough": 647,
      "Ġwould": 648,
      "ord": 649,
      "Ġ201": 650,
      "ĠThis": 651,
      "Ġlike": 652,
      "ib": 653,
      "ĠSt": 654,
      "Ġag": 655,
      "Ġyear": 656,
      "ult": 657,
      "Ġpart": 658,
      "ick": 659,
      "Ġits": 660,
      "Ġover": 661,
      "ĠWe": 662,
      "Ġkn": 663,
      "ild": 664,
      "Ġno": 665,
      "Ġnew": 666,
      "ces": 667,
      "tain": 668,
      "ens": 669,
      "irst": 670,
      "ors": 671,
      "Ġget": 672,
      "ĠĠĠĠĊ": 673,
      "Ġdes": 674,
      "Ġimp": 675,
      "Ġspe": 676,
      "Ġrec": 677,
      "ark": 678,
      "ents": 679,
      "Ġpe": 680,
      "fter": 681,
      "Ġpre": 682,
      "Ġam": 683,
      "Ġwhat": 684,
      "Ġinto": 685,
      "Ġshe": 686,
      "than": 687,
      "feren": 688,
      "nder": 689,
      "ater": 690,
      "ade": 691,
      "Ġtw": 692,
      "ang": 693,
      "Ġthan": 694,
      "ory": 695,
      "urn": 696,
      "ak": 697,
      "Ġco": 698,
      "ĠRe": 699,
      "old": 700,
      "hed": 701,
      "Ġstr": 702,
      "Ġbo": 703,
      "vers": 704,
      "ru": 705,
      "int": 706,
      "Ġwork": 707,
      "rough": 708,
      "Ġ-": 709,
      "Ġacc": 710,
      "Ġbec": 711,
      "Ġneed": 712,
      "Ġhim": 713,
      "Ġhow": 714,
      "itt": 715,
      "Ġfirst": 716,
      "tern": 717,
      "ments": 718,
      "Ġpr": 719,
      ").": 720,
      "ons": 721,
      "ople": 722,
      "use": 723,
      "..": 724,
      "ious": 725,
      "lic": 726,
      "amp": 727,
      "Ġcomm": 728,
      "ont": 729,
      "Ġcont": 730,
      "Ġ|": 731,
      "clud": 732,
      "ates": 733,
      "Ġonly": 734,
      "Ġ4": 735,
      "Ġmay": 736,
      "Ġjust": 737,
      "ect": 738,
      "ning": 739,
      "les": 740,
      "ied": 741,
      "ful": 742,
      "Ġuse": 743,
      "Ġcol": 744,
      "thing": 745,
      "hrough": 746,
      "Ġind": 747,
      "Ġprov": 748,
      "Ġra": 749,
      "),": 750,
      "Ġ$": 751,
      "Ġtwo": 752,
      "hy": 753,
      "Ġadd": 754,
      "Ġmo": 755,
      "end": 756,
      "ual": 757,
      "Ġserv": 758,
      "Ġ5": 759,
      "Ġthen": 760,
      "Ġcons": 761,
      "through": 762,
      "Ġknow": 763,
      "Ġmost": 764,
      "Ġpeople": 765,
      "Ġbu": 766,
      "rit": 767,
      "ĠĠĠĠĠĠĠ": 768,
      "xt": 769,
      "Ġwell": 770,
      "ise": 771,
      "ings": 772,
      "mp": 773,
      "Ġthrough": 774,
      "ĠAs": 775,
      "fore": 776,
      "Ġafter": 777,
      "ĠUn": 778,
      "ĠâĢĵ": 779,
      "Ġmake": 780,
      "lp": 781,
      "Ġlook": 782,
      "Ġunder": 783,
      "iss": 784,
      "'t": 785,
      "ject": 786,
      "elf": 787,
      "Ġinclud": 788,
      "ĠIf": 789,
      "ĠNe": 790,
      "ĠAn": 791,
      "round": 792,
      "ath": 793,
      "Ġpo": 794,
      "ĠYou": 795,
      "che": 796,
      "ink": 797,
      "ced": 798,
      "Ġdif": 799,
      "Ġrep": 800,
      "lect": 801,
      "oss": 802,
      "ict": 803,
      "Ġ=": 804,
      "gr": 805,
      "Ġthese": 806,
      "Ġprodu": 807,
      "ased": 808,
      "Ġvery": 809,
      "cial": 810,
      "ward": 811,
      "turn": 812,
      "Ġhelp": 813,
      "Ġsaid": 814,
      "ating": 815,
      "Ġcould": 816,
      "Ġwhere": 817,
      "ife": 818,
      "Ġact": 819,
      "Ġsee": 820,
      "Ġrel": 821,
      "Ġsta": 822,
      "Ġevery": 823,
      "Ġrem": 824,
      "ms": 825,
      "ific": 826,
      "ause": 827,
      "NN": 828,
      "bs": 829,
      "Ġreg": 830,
      "Ġback": 831,
      "aw": 832,
      "Ġplay": 833,
      "row": 834,
      "ily": 835,
      "Ġ200": 836,
      "hough": 837,
      "ood": 838,
      "ting": 839,
      "Ġgreat": 840,
      "ational": 841,
      "fect": 842,
      "Ġshould": 843,
      "uch": 844,
      "ities": 845,
      "Ġsupp": 846,
      ".\"": 847,
      "ible": 848,
      "cess": 849,
      "oth": 850,
      "Ġsy": 851,
      "iew": 852,
      "ft": 853,
      "als": 854,
      "ool": 855,
      "ices": 856,
      "Ġset": 857,
      "Ġsuch": 858,
      "Ġent": 859,
      "ĠDe": 860,
      "Ġway": 861,
      "though": 862,
      "land": 863,
      "Ġmany": 864,
      "ĠAnd": 865,
      "ange": 866,
      "Ġinst": 867,
      "man": 868,
      "Ġhand": 869,
      "Ġwant": 870,
      "Ġass": 871,
      "Ġsm": 872,
      "ng": 873,
      "Ġ`": 874,
      "uring": 875,
      "ved": 876,
      "Ġloc": 877,
      "Ġgood": 878,
      "ular": 879,
      "Ġnow": 880,
      "Ġke": 881,
      "Ġsec": 882,
      "ener": 883,
      "ited": 884,
      "Ġyears": 885,
      "ĠFor": 886,
      "Ġown": 887,
      "ĠCom": 888,
      "Ġdown": 889,
      "ures": 890,
      "Ġinv": 891,
      "iness": 892,
      "erson": 893,
      "ĠSe": 894,
      "ility": 895,
      "pect": 896,
      "Ġmade": 897,
      "Ġac": 898,
      "alt": 899,
      "Ġ'": 900,
      "Ġagain": 901,
      "ĠPro": 902,
      "ics": 903,
      "ug": 904,
      "up": 905,
      "air": 906,
      "Ġeven": 907,
      "Ġstud": 908,
      "Ġinc": 909,
      "ove": 910,
      "ĠAl": 911,
      "Ġ18": 912,
      "Ġcar": 913,
      "hip": 914,
      "Ġ6": 915,
      "Ġbl": 916,
      "Ġ_": 917,
      "Ġcoun": 918,
      "Ġexper": 919,
      "ph": 920,
      "ving": 921,
      "gan": 922,
      "ative": 923,
      "io": 924,
      "Ġfin": 925,
      "Ġlong": 926,
      "Ġbefore": 927,
      "Ġend": 928,
      "ient": 929,
      "Ġdifferen": 930,
      "AT": 931,
      "Ġcall": 932,
      "any": 933,
      "Ġdid": 934,
      "hen": 935,
      "her": 936,
      "Ġhigh": 937,
      "Ġmuch": 938,
      "Ġsto": 939,
      "oy": 940,
      "stem": 941,
      "olog": 942,
      "arch": 943,
      "Ġdec": 944,
      "its": 945,
      "Ġpres": 946,
      "Ġday": 947,
      "Ġfind": 948,
      "Ġbus": 949,
      "Ġbr": 950,
      "led": 951,
      "ower": 952,
      "een": 953,
      "cy": 954,
      "ven": 955,
      "ĠAr": 956,
      "day": 957,
      "ix": 958,
      "Ġnum": 959,
      "ollow": 960,
      "way": 961,
      "ident": 962,
      "hose": 963,
      "orn": 964,
      "ĠBut": 965,
      "Ġche": 966,
      "Ġins": 967,
      "Ġfun": 968,
      "Ġbeing": 969,
      "ten": 970,
      "ata": 971,
      "velop": 972,
      "tom": 973,
      "ouse": 974,
      "Ġrequ": 975,
      "Ġfl": 976,
      "Ġtrans": 977,
      "Ġmod": 978,
      "chool": 979,
      "und": 980,
      "ience": 981,
      "ave": 982,
      "Ġgu": 983,
      "Ġhere": 984,
      "Ġread": 985,
      "Ġused": 986,
      "Ġmin": 987,
      "Ġsub": 988,
      "Ġthing": 989,
      "ton": 990,
      "ob": 991,
      "ose": 992,
      "Ġbest": 993,
      "omet": 994,
      "ince": 995,
      "ull": 996,
      "Ġ&": 997,
      "Ġhome": 998,
      "Ġeach": 999,
      "Ġexp": 1000,
      "Ġval": 1001,
      "ĠOn": 1002,
      "ale": 1003,
      "Ġsim": 1004,
      "ason": 1005,
      "Ġfam": 1006,
      "rent": 1007,
      "Ġinform": 1008,
      "Ġop": 1009,
      "ĠHow": 1010,
      "com": 1011,
      "those": 1012,
      "ĠLe": 1013,
      "Ġtake": 1014,
      "ĠNew": 1015,
      "Ġfound": 1016,
      "ene": 1017,
      "Ġthose": 1018,
      "Ġsur": 1019,
      "ss": 1020,
      "ĠThere": 1021,
      "Ġcre": 1022,
      "ever": 1023,
      "Ġshow": 1024,
      "ork": 1025,
      "Ġ7": 1026,
      "Ġinte": 1027,
      "Ġdet": 1028,
      "Ġdon": 1029,
      "Ġstart": 1030,
      "Ġlife": 1031,
      "Ġchar": 1032,
      "pr": 1033,
      "Ġform": 1034,
      "Ġbecause": 1035,
      "Ġ8": 1036,
      "Ġfollow": 1037,
      "der": 1038,
      "Ġwhile": 1039,
      "Ġmem": 1040,
      "Ġdoes": 1041,
      "Ġthough": 1042,
      "cri": 1043,
      "ier": 1044,
      "Ġdesign": 1045,
      "ount": 1046,
      "ĠĠĠĠĠĠĠĠĠĠĠĠĠĠĠĠ": 1047,
      "Ġpub": 1048,
      "az": 1049,
      "20": 1050,
      "ĠEx": 1051,
      "Ġmet": 1052,
      "ines": 1053,
      "Ġvar": 1054,
      "iel": 1055,
      "ption": 1056,
      "meric": 1057,
      "iet": 1058,
      "Ġdifferent": 1059,
      "Ġcur": 1060,
      "ĠBe": 1061,
      "Ġsame": 1062,
      "ues": 1063,
      "ps": 1064,
      "ars": 1065,
      "Ġser": 1066,
      "Ġperson": 1067,
      "tal": 1068,
      "ner": 1069,
      "ivers": 1070,
      "au": 1071,
      "Ġbetw": 1072,
      "Ġinter": 1073,
      "rest": 1074,
      "Ġbetween": 1075,
      "Ġgr": 1076,
      "Ġdisc": 1077,
      "ets": 1078,
      "Ġav": 1079,
      "other": 1080,
      "self": 1081,
      "ittle": 1082,
      "ock": 1083,
      "ually": 1084,
      "ctions": 1085,
      "ness": 1086,
      "19": 1087,
      "Ġart": 1088,
      "Ġ10": 1089,
      "Ġright": 1090,
      "ins": 1091,
      "ric": 1092,
      "hree": 1093,
      "tter": 1094,
      "Ġpol": 1095,
      "Ġbusiness": 1096,
      "ished": 1097,
      "ution": 1098,
      "ality": 1099,
      "gram": 1100,
      "ision": 1101,
      "line": 1102,
      "ys": 1103,
      "irect": 1104,
      "Ġsystem": 1105,
      "be": 1106,
      "Ġdevelop": 1107,
      "Ġed": 1108,
      "âĢĵ": 1109,
      "Ġfil": 1110,
      "Ġ.": 1111,
      "ives": 1112,
      "ash": 1113,
      "Ġstate": 1114,
      "min": 1115,
      "Ġworld": 1116,
      "read": 1117,
      "Ġcomple": 1118,
      "atch": 1119,
      "Ġsw": 1120,
      "ĠAmeric": 1121,
      "Ġmed": 1122,
      "Ġcle": 1123,
      "Ġplace": 1124,
      "ĠThey": 1125,
      "ĠSh": 1126,
      "Ġcare": 1127,
      "ĠCl": 1128,
      "Ġlast": 1129,
      "ute": 1130,
      "Ġob": 1131,
      "CT": 1132,
      "Ġusing": 1133,
      "ĠShe": 1134,
      "Ġes": 1135,
      "Ġadv": 1136,
      "ves": 1137,
      "ffect": 1138,
      "oot": 1139,
      "ode": 1140,
      "chn": 1141,
      "Ġboth": 1142,
      "Ġchild": 1143,
      "Ġinformation": 1144,
      "Ġrun": 1145,
      "Ġlar": 1146,
      "ired": 1147,
      "Ġste": 1148,
      "ĠSo": 1149,
      "Ġgener": 1150,
      "Ġposs": 1151,
      "ize": 1152,
      "three": 1153,
      "ĠCon": 1154,
      "kes": 1155,
      "cer": 1156,
      "Ġlittle": 1157,
      "ists": 1158,
      "hink": 1159,
      "Ġprovid": 1160,
      "Ġpass": 1161,
      "arn": 1162,
      "Ġreturn": 1163,
      "Ġem": 1164,
      "ants": 1165,
      "bo": 1166,
      "ather": 1167,
      "Ġthree": 1168,
      "Ġcour": 1169,
      "Ġmark": 1170,
      "Ġpar": 1171,
      ",\"": 1172,
      "ple": 1173,
      "ames": 1174,
      "Ġstill": 1175,
      "Ġlead": 1176,
      "Ġvis": 1177,
      "Ġ0": 1178,
      "ield": 1179,
      "Ġsomet": 1180,
      "ank": 1181,
      "Ġmust": 1182,
      ");": 1183,
      "Ġproduct": 1184,
      "Ġ[": 1185,
      "els": 1186,
      "Ġsk": 1187,
      "Ġeas": 1188,
      "Ġ9": 1189,
      "Ġsign": 1190,
      "Ġdef": 1191,
      "iving": 1192,
      "Ġprof": 1193,
      "ession": 1194,
      "orth": 1195,
      "ted": 1196,
      "riend": 1197,
      "arm": 1198,
      "ĠAd": 1199,
      "Ġbook": 1200,
      "ages": 1201,
      "uc": 1202,
      "Ġpur": 1203,
      "think": 1204,
      "Ġlist": 1205,
      "Ġteam": 1206,
      "try": 1207,
      "me": 1208,
      "ature": 1209,
      "Ġty": 1210,
      "Ġcent": 1211,
      "AA": 1212,
      "ways": 1213,
      "ĠĠĠĠĠ": 1214,
      "Ġwee": 1215,
      "arly": 1216,
      "ĠAt": 1217,
      "Ġthink": 1218,
      "Ġter": 1219,
      "Ġ{": 1220,
      "ake": 1221,
      "Ġi": 1222,
      "Ġmain": 1223,
      "ĠInd": 1224,
      "mber": 1225,
      "ery": 1226,
      "ĠIs": 1227,
      "Ġopen": 1228,
      "Ġtoo": 1229,
      "Ġnumber": 1230,
      "Ġappro": 1231,
      "ized": 1232,
      "outh": 1233,
      "Ġ/": 1234,
      "ters": 1235,
      "Ġduring": 1236,
      "Ġaround": 1237,
      "Ġwithout": 1238,
      "Ġdel": 1239,
      "ĠQ": 1240,
      "gg": 1241,
      "ex": 1242,
      "ER": 1243,
      "Ġprocess": 1244,
      "Ġcus": 1245,
      "Ġprogram": 1246,
      "Ġref": 1247,
      "ov": 1248,
      "Ġsol": 1249,
      "Ġrece": 1250,
      "alth": 1251,
      "less": 1252,
      "ared": 1253,
      "ah": 1254,
      "Ġ*": 1255,
      "Ġpost": 1256,
      "tre": 1257,
      "Ġold": 1258,
      "lease": 1259,
      "Ġsay": 1260,
      "Ġlove": 1261,
      "ross": 1262,
      "uth": 1263,
      "Ġimport": 1264,
      "Ġclass": 1265,
      "Ġcommun": 1266,
      "ĠTo": 1267,
      "Ġel": 1268,
      "Ġfr": 1269,
      "Ġspec": 1270,
      "oh": 1271,
      "iqu": 1272,
      "ĠSp": 1273,
      "ying": 1274,
      "Ġsmall": 1275,
      "bers": 1276,
      "ĠWhen": 1277,
      "bl": 1278,
      "Ġpri": 1279,
      "vern": 1280,
      "000": 1281,
      "ĠCol": 1282,
      "Ġwater": 1283,
      "Ġfew": 1284,
      "cent": 1285,
      "ĠWhat": 1286,
      "ĠPl": 1287,
      "get": 1288,
      "Ġconf": 1289,
      "Ġdata": 1290,
      "ĠEng": 1291,
      "Ġsupport": 1292,
      "Ġpa": 1293,
      "ody": 1294,
      "Ġcome": 1295,
      "Ġbuild": 1296,
      "Ġbro": 1297,
      "ĠFr": 1298,
      "Ġsecond": 1299,
      "ering": 1300,
      "ury": 1301,
      "ral": 1302,
      "Ġhead": 1303,
      "uss": 1304,
      "Ġfree": 1305,
      "view": 1306,
      "ĠAll": 1307,
      "onth": 1308,
      "Ġwr": 1309,
      "Ġbel": 1310,
      "ural": 1311,
      "ention": 1312,
      "gin": 1313,
      "Ġname": 1314,
      "til": 1315,
      "ĠTh": 1316,
      "Ġ}": 1317,
      "Ġpat": 1318,
      "Ġmight": 1319,
      "con": 1320,
      "Ġtop": 1321,
      "Ġanother": 1322,
      "Ġ199": 1323,
      "rand": 1324,
      "test": 1325,
      "Ġ<": 1326,
      "Ġreally": 1327,
      "Ġschool": 1328,
      "ĠSc": 1329,
      "Ġgoing": 1330,
      "Ġpartic": 1331,
      "Ġide": 1332,
      "Ġavail": 1333,
      "Ġhapp": 1334,
      "Ġint": 1335,
      "Ġput": 1336,
      "Ġplan": 1337,
      "put": 1338,
      "ĠZ": 1339,
      "ipp": 1340,
      "Ġnever": 1341,
      "Ġservice": 1342,
      "roup": 1343,
      "Ġallow": 1344,
      "rol": 1345,
      "Ġ||": 1346,
      "Ġcontin": 1347,
      "Ġdirect": 1348,
      "Ġfriend": 1349,
      "Ġstand": 1350,
      "ĠTr": 1351,
      "Ġtechn": 1352,
      "eng": 1353,
      "iversity": 1354,
      "NNNN": 1355,
      "Ġfamily": 1356,
      "Ġperform": 1357,
      "Ġsl": 1358,
      "ract": 1359,
      "Ġcompany": 1360,
      "pend": 1361,
      "Ġalways": 1362,
      "ital": 1363,
      "ology": 1364,
      "Ġkeep": 1365,
      "Ġinf": 1366,
      "Ġconst": 1367,
      "Ġincluding": 1368,
      "Ġfact": 1369,
      "Ġorgan": 1370,
      "ined": 1371,
      "Ġcor": 1372,
      "ĠÐ": 1373,
      "Ġquest": 1374,
      "ically": 1375,
      "Ġinterest": 1376,
      "Ġmus": 1377,
      "Ġcer": 1378,
      "Ġproper": 1379,
      "Ġrest": 1380,
      "Ġlevel": 1381,
      "Ġfeel": 1382,
      "The": 1383,
      "irt": 1384,
      "ium": 1385,
      "Ġthings": 1386,
      "Ġsince": 1387,
      "Ġproject": 1388,
      "gy": 1389,
      "Ġmonth": 1390,
      "Ġcond": 1391,
      "ately": 1392,
      "lement": 1393,
      "Ġreal": 1394,
      "Ġmen": 1395,
      "ien": 1396,
      "ample": 1397,
      "stand": 1398,
      "Ġpublic": 1399,
      "de": 1400,
      "reen": 1401,
      "Ġfunction": 1402,
      "ote": 1403,
      "Ġseem": 1404,
      "Ġturn": 1405,
      "Ġresp": 1406,
      "ĠCan": 1407,
      "----": 1408,
      "Ġavailable": 1409,
      "Ġagainst": 1410,
      "ĠWith": 1411,
      "Ġbetter": 1412,
      "Ġbased": 1413,
      "Ġexpl": 1414,
      "ĠWh": 1415,
      "ccess": 1416,
      "Ġwithin": 1417,
      "Ġdri": 1418,
      "Ġcr": 1419,
      "Ġsomething": 1420,
      "Ġsure": 1421,
      "Ġgl": 1422,
      "Ġgive": 1423,
      "co": 1424,
      "Ġeffect": 1425,
      "ird": 1426,
      "ĠChr": 1427,
      "rap": 1428,
      "AG": 1429,
      "Ġsing": 1430,
      "Ġbre": 1431,
      "ĠAmerican": 1432,
      "Ġorder": 1433,
      "Ġpresent": 1434,
      "Ġph": 1435,
      ".,": 1436,
      "Ġiss": 1437,
      "Ġoper": 1438,
      "ived": 1439,
      "Ġwom": 1440,
      "Ġca": 1441,
      "Ġeng": 1442,
      "ĠOr": 1443,
      "Ġcontr": 1444,
      "ior": 1445,
      "10": 1446,
      "Ġcho": 1447,
      "âĢĶ": 1448,
      "Ġcase": 1449,
      "ised": 1450,
      "Ġnext": 1451,
      "Ġmar": 1452,
      "Ġlot": 1453,
      "ime": 1454,
      "TT": 1455,
      "ling": 1456,
      "iver": 1457,
      "osed": 1458,
      "Ġpower": 1459,
      "ases": 1460,
      "orts": 1461,
      "ret": 1462,
      "Ġ12": 1463,
      "Ġmat": 1464,
      "ights": 1465,
      "ik": 1466,
      "ured": 1467,
      "ffic": 1468,
      "Ġ15": 1469,
      "Ġpop": 1470,
      "cept": 1471,
      "Ġopp": 1472,
      "ĠMar": 1473,
      "Ġupon": 1474,
      "Ġequ": 1475,
      "Ġemp": 1476,
      "Ġhouse": 1477,
      "Ġve": 1478,
      "ards": 1479,
      "med": 1480,
      "ĠĠĠĠĠĠĠĠĠĠĠ": 1481,
      "Ġmarket": 1482,
      "ley": 1483,
      "loy": 1484,
      "itions": 1485,
      "Ġproble": 1486,
      "ĠMr": 1487,
      "Ġfull": 1488,
      "Ġsoc": 1489,
      "Ġpos": 1490,
      "ism": 1491,
      "Ġcurrent": 1492,
      "Ġarea": 1493,
      "Ġuntil": 1494,
      "Ġless": 1495,
      "Ġlarge": 1496,
      "Ġcap": 1497,
      "ĠCoun": 1498,
      "aut": 1499,
      "ĠCo": 1500,
      "Ġable": 1501,
      "hes": 1502,
      "Ġfour": 1503,
      "Ġexperience": 1504,
      "Ġpay": 1505,
      "ĠTe": 1506,
      "orm": 1507,
      "Ġdays": 1508,
      "ina": 1509,
      "iven": 1510,
      "tend": 1511,
      "Ġprovide": 1512,
      "ense": 1513,
      "ball": 1514,
      "Ġprev": 1515,
      "Ġincre": 1516,
      "ator": 1517,
      "ours": 1518,
      "ken": 1519,
      "ider": 1520,
      "oney": 1521,
      ",âĢĿ": 1522,
      "Ġlight": 1523,
      "Ġhard": 1524,
      "hoto": 1525,
      "istr": 1526,
      "Ġword": 1527,
      "Ġ#": 1528,
      "we": 1529,
      "Ġaway": 1530,
      "Ġservices": 1531,
      "lection": 1532,
      "Ġcost": 1533,
      "Ġimportant": 1534,
      "ified": 1535,
      "Ġroom": 1536,
      "inal": 1537,
      "ax": 1538,
      "Ġocc": 1539,
      "ivid": 1540,
      "ĠMy": 1541,
      "ently": 1542,
      "Ġjo": 1543,
      "Ġpossible": 1544,
      "ĠBl": 1545,
      "ission": 1546,
      "ches": 1547,
      "ĠNo": 1548,
      "ĠMan": 1549,
      "Ġview": 1550,
      "here": 1551,
      "Ġcalled": 1552,
      "Ġair": 1553,
      "ĠThat": 1554,
      "ĠComm": 1555,
      "ĠGo": 1556,
      "Ã©": 1557,
      "Ġwin": 1558,
      "Ġpoint": 1559,
      "ger": 1560,
      "Ġrecord": 1561,
      "Ġgot": 1562,
      "Ġspecial": 1563,
      "Ġhist": 1564,
      "gether": 1565,
      "ron": 1566,
      "Ġalong": 1567,
      "ĠUniversity": 1568,
      "ats": 1569,
      "ferences": 1570,
      "Ġline": 1571,
      "aster": 1572,
      "Ġlaw": 1573,
      "ern": 1574,
      "Ġtest": 1575,
      "Ġleft": 1576,
      "ieve": 1577,
      "uck": 1578,
      "Ġgame": 1579,
      "port": 1580,
      "ohn": 1581,
      "veral": 1582,
      "wards": 1583,
      "omm": 1584,
      "Ġcame": 1585,
      "Ġet": 1586,
      "IN": 1587,
      "Ġtal": 1588,
      "aining": 1589,
      "Ġside": 1590,
      "ĠRes": 1591,
      "of": 1592,
      "Ġaccess": 1593,
      "Ġgrow": 1594,
      "hod": 1595,
      "ched": 1596,
      "Ġtra": 1597,
      "Ġdra": 1598,
      "Ġaddition": 1599,
      "Ġprom": 1600,
      "Ġhum": 1601,
      "Ġann": 1602,
      "...": 1603,
      "ĠAfter": 1604,
      "Ġsit": 1605,
      "Ġcontrol": 1606,
      "uro": 1607,
      "tra": 1608,
      "iam": 1609,
      ".âĢĿ": 1610,
      "par": 1611,
      "Ġbeh": 1612,
      "ĠPr": 1613,
      "ential": 1614,
      "Ġhaving": 1615,
      "Ġchildren": 1616,
      "Ġfac": 1617,
      "ients": 1618,
      "Ġvalue": 1619,
      "ges": 1620,
      "Ġ17": 1621,
      "ĠâĢĺ": 1622,
      "Ġask": 1623,
      "Ġland": 1624,
      "ither": 1625,
      "Ġpract": 1626,
      "oci": 1627,
      "iety": 1628,
      "br": 1629,
      "Ġfar": 1630,
      "Ġho": 1631,
      "tell": 1632,
      "Ġwebs": 1633,
      "vernment": 1634,
      "Ġlocal": 1635,
      "ortun": 1636,
      "Ġworking": 1637,
      "Ġdep": 1638,
      "Ġmaking": 1639,
      "by": 1640,
      "Ġchang": 1641,
      "Ġsuccess": 1642,
      "Ġmeet": 1643,
      "Ġbig": 1644,
      "Ġlet": 1645,
      "ĠBo": 1646,
      "app": 1647,
      "uct": 1648,
      "Ġresult": 1649,
      "Ġdist": 1650,
      "Ġcourse": 1651,
      "Ð¾": 1652,
      "Ġ198": 1653,
      "ĠUnited": 1654,
      "Ġwrit": 1655,
      "Ġrese": 1656,
      "ults": 1657,
      "cing": 1658,
      "ĠDo": 1659,
      "ĠCar": 1660,
      "ream": 1661,
      "18": 1662,
      "Ġla": 1663,
      "ĠRo": 1664,
      "ĠChrist": 1665,
      "load": 1666,
      "Ġpain": 1667,
      "Ġ16": 1668,
      "rop": 1669,
      "Ġdem": 1670,
      "let": 1671,
      "Ġchange": 1672,
      "ĠOur": 1673,
      "ians": 1674,
      "Ġey": 1675,
      "Ġknown": 1676,
      "Ġdr": 1677,
      "Ġapplic": 1678,
      "iron": 1679,
      "ĠJohn": 1680,
      "ĠMay": 1681,
      "alf": 1682,
      "ec": 1683,
      "Ġhealth": 1684,
      "ĠGod": 1685,
      "Ġbas": 1686,
      "Ġevent": 1687,
      "50": 1688,
      "Ġclo": 1689,
      "\",": 1690,
      "ane": 1691,
      "Ġvisit": 1692,
      "Ġoften": 1693,
      "Ġintern": 1694,
      "Ġonline": 1695,
      "ĠWor": 1696,
      "Ġinvest": 1697,
      "ization": 1698,
      "Ġseveral": 1699,
      "Ġsite": 1700,
      "Ġdev": 1701,
      "Ġfollowing": 1702,
      "ON": 1703,
      "Ġcustom": 1704,
      "Ġcheck": 1705,
      "ĠBr": 1706,
      "ĠX": 1707,
      "ows": 1708,
      "Ġconne": 1709,
      "Ġkind": 1710,
      "ĠThese": 1711,
      "Ġweek": 1712,
      "ged": 1713,
      "Ġorig": 1714,
      "Ġblo": 1715,
      "ably": 1716,
      "err": 1717,
      "ĠOne": 1718,
      "Ġunderstand": 1719,
      "Ġprote": 1720,
      "Ġtogether": 1721,
      "joy": 1722,
      "Ġgroup": 1723,
      "Ġlooking": 1724,
      "Ġcertain": 1725,
      "AC": 1726,
      "Ġleg": 1727,
      "Ġtimes": 1728,
      "Ġdone": 1729,
      "sh": 1730,
      "ump": 1731,
      "oint": 1732,
      "Ġfoot": 1733,
      "Ġseason": 1734,
      "Ġlater": 1735,
      "Ġfore": 1736,
      "work": 1737,
      "Ġdescri": 1738,
      "'m": 1739,
      "Ġau": 1740,
      "treat": 1741,
      "ĠCent": 1742,
      "Ġlow": 1743,
      "Ġfood": 1744,
      "Ġever": 1745,
      "ann": 1746,
      "Ġcharact": 1747,
      "Ġcountry": 1748,
      "Ġfeat": 1749,
      "jor": 1750,
      "ES": 1751,
      "Ġonce": 1752,
      "Ġprofession": 1753,
      "ĠEn": 1754,
      "ĠUS": 1755,
      "illion": 1756,
      "ister": 1757,
      "resent": 1758,
      "ĠAm": 1759,
      "Ġyoung": 1760,
      "ried": 1761,
      "Ġelect": 1762,
      "atic": 1763,
      "ique": 1764,
      "att": 1765,
      "Ġcode": 1766,
      "Ġcomplete": 1767,
      "tact": 1768,
      "Ġmoney": 1769,
      "une": 1770,
      "Ġtre": 1771,
      "Ġphoto": 1772,
      "Ġworks": 1773,
      "ories": 1774,
      "augh": 1775,
      "Ġgra": 1776,
      "Ġtook": 1777,
      "Ġquality": 1778,
      "Ġgiven": 1779,
      "room": 1780,
      "yle": 1781,
      "son": 1782,
      "uthor": 1783,
      "not": 1784,
      "Ġtell": 1785,
      "aking": 1786,
      "Ġactiv": 1787,
      "Ġwent": 1788,
      "ney": 1789,
      "Ġthought": 1790,
      "ills": 1791,
      "ances": 1792,
      "Ġ11": 1793,
      "ency": 1794,
      "Ġcity": 1795,
      "Ġwind": 1796,
      "aim": 1797,
      "Ġshort": 1798,
      "Ġcontain": 1799,
      "Ðµ": 1800,
      "lish": 1801,
      "val": 1802,
      "Ġreport": 1803,
      "Ġsn": 1804,
      "Ġappear": 1805,
      "Ġoffic": 1806,
      "agement": 1807,
      "Ġmusic": 1808,
      "Ġlearn": 1809,
      "ales": 1810,
      "Ġinclude": 1811,
      "aces": 1812,
      "ising": 1813,
      "Ġbeaut": 1814,
      "Ġnight": 1815,
      "ĠHowever": 1816,
      "ert": 1817,
      "erm": 1818,
      "Ġmil": 1819,
      "Ġcreat": 1820,
      "ĠReferences": 1821,
      "inks": 1822,
      "side": 1823,
      "ered": 1824,
      "ĠChe": 1825,
      "AR": 1826,
      "aterial": 1827,
      "Ġimpro": 1828,
      "Ġflow": 1829,
      "ails": 1830,
      "ording": 1831,
      "utes": 1832,
      "ctor": 1833,
      "most": 1834,
      "Ġoffer": 1835,
      "urch": 1836,
      "Ġindust": 1837,
      "itch": 1838,
      "Ġwhether": 1839,
      "Ġothers": 1840,
      "Ġcreate": 1841,
      "Ġuser": 1842,
      "Ġstudents": 1843,
      "Ġmove": 1844,
      "ides": 1845,
      "sel": 1846,
      "Ġmind": 1847,
      "ready": 1848,
      "Ġexpect": 1849,
      "Ġelse": 1850,
      "ĠSy": 1851,
      "idd": 1852,
      "bed": 1853,
      "Ġexample": 1854,
      "Ġmeans": 1855,
      "30": 1856,
      "ĠHis": 1857,
      "Ġenough": 1858,
      "sw": 1859,
      "arl": 1860,
      "Ġ//": 1861,
      "Ġ30": 1862,
      "aring": 1863,
      "ĠPh": 1864,
      "ĠSu": 1865,
      "Ġwebsite": 1866,
      "Ġbecome": 1867,
      "Ġvers": 1868,
      "lev": 1869,
      "ividual": 1870,
      "Ġmembers": 1871,
      "Ġbody": 1872,
      "ints": 1873,
      "itive": 1874,
      "Ġwhy": 1875,
      "Ġcal": 1876,
      "cul": 1877,
      "Ġproducts": 1878,
      "Ġtrad": 1879,
      "12": 1880,
      "enn": 1881,
      "ips": 1882,
      "inc": 1883,
      "ai": 1884,
      "Ġopt": 1885,
      "ift": 1886,
      "ung": 1887,
      "Ð°": 1888,
      "Ġwar": 1889,
      "fer": 1890,
      "icle": 1891,
      "Ġenjoy": 1892,
      "Ġtoday": 1893,
      "used": 1894,
      "urther": 1895,
      "ination": 1896,
      "Ġtreat": 1897,
      "ots": 1898,
      "ument": 1899,
      "Ġmean": 1900,
      "ĠâĢĶ": 1901,
      "ĠFe": 1902,
      "Ġ197": 1903,
      "(\"": 1904,
      "ĠHere": 1905,
      "Ġfield": 1906,
      "Ġpriv": 1907,
      "Ġemploy": 1908,
      "my": 1909,
      "pecial": 1910,
      "Ġwon": 1911,
      "tit": 1912,
      "ford": 1913,
      "Ġ14": 1914,
      "Ġce": 1915,
      "imes": 1916,
      "Ġmult": 1917,
      "Ġneeds": 1918,
      "uly": 1919,
      "Ġlim": 1920,
      "Ġbene": 1921,
      "alk": 1922,
      "tabl": 1923,
      "rew": 1924,
      "cted": 1925,
      "ief": 1926,
      "Ġhold": 1927,
      "Ġyet": 1928,
      "Ġpage": 1929,
      "ilt": 1930,
      "ster": 1931,
      "ids": 1932,
      "Ġmethod": 1933,
      "Ġalready": 1934,
      "Ġeduc": 1935,
      "ead": 1936,
      "Ġsum": 1937,
      "por": 1938,
      "Ġamong": 1939,
      "Ġeasy": 1940,
      "Ġ\\": 1941,
      "Ġabove": 1942,
      "rodu": 1943,
      "ĠNot": 1944,
      "play": 1945,
      "Ġexce": 1946,
      "ining": 1947,
      "ĠAust": 1948,
      "ze": 1949,
      "ony": 1950,
      "ĠPe": 1951,
      "Ġspecific": 1952,
      "ĠCal": 1953,
      "ĠStates": 1954,
      "Ġindividual": 1955,
      "Ġtype": 1956,
      "ĠGu": 1957,
      "aps": 1958,
      "Ġmaterial": 1959,
      "Ġlive": 1960,
      "ĠThan": 1961,
      "Ġearly": 1962,
      "ued": 1963,
      "Ġrepl": 1964,
      "Ġpersonal": 1965,
      "Ġvide": 1966,
      "ĠÂ": 1967,
      "ĠFl": 1968,
      "Ġreason": 1969,
      "ĠEuro": 1970,
      "ĠGe": 1971,
      "CC": 1972,
      "osp": 1973,
      "iting": 1974,
      "Ġclean": 1975,
      "cle": 1976,
      "Ġleast": 1977,
      "Ġage": 1978,
      "ĠSte": 1979,
      "iod": 1980,
      "Ġhig": 1981,
      "ĠDes": 1982,
      "Ġnon": 1983,
      "ained": 1984,
      "Ġnear": 1985,
      "Ġflo": 1986,
      "hys": 1987,
      "Ġmess": 1988,
      "Ġkey": 1989,
      "irl": 1990,
      "Ġparticular": 1991,
      "ĠSouth": 1992,
      "Ġcommunity": 1993,
      "ĠĠĠĠĠĠ": 1994,
      "Ġacross": 1995,
      "Ġcamp": 1996,
      "ison": 1997,
      "Ġprint": 1998,
      "ference": 1999,
      "Ġmom": 2000,
      "ĠNational": 2001,
      "urs": 2002,
      "AN": 2003,
      "Ġseries": 2004,
      "Ġtry": 2005,
      "Ġwomen": 2006,
      "Ġrequire": 2007,
      "!!": 2008,
      "Ġperfect": 2009,
      "Ġvol": 2010,
      "Ġcou": 2011,
      "Ġestabl": 2012,
      "sc": 2013,
      "Ġpast": 2014,
      "Ġmon": 2015,
      "iful": 2016,
      "Ġsingle": 2017,
      "Ġmajor": 2018,
      "GG": 2019,
      "Ġ13": 2020,
      "Ġpot": 2021,
      "Ġcompet": 2022,
      "fic": 2023,
      "conom": 2024,
      "Ġfav": 2025,
      "Ġbelow": 2026,
      "Ġdeath": 2027,
      "erman": 2028,
      "go": 2029,
      "Ġwhole": 2030,
      "ĠMe": 2031,
      "Ġdou": 2032,
      "Ġdistr": 2033,
      "Ġtyp": 2034,
      "ring": 2035,
      "Ġdevelopment": 2036,
      "viron": 2037,
      "Ġaw": 2038,
      "'ve": 2039,
      "Ġquick": 2040,
      "ush": 2041,
      "ĠEd": 2042,
      "Ġshall": 2043,
      "Ġseen": 2044,
      "Ġ>": 2045,
      "Ġheart": 2046,
      "ulation": 2047,
      "nam": 2048,
      "Ġsocial": 2049,
      "Ġsent": 2050,
      "tar": 2051,
      "Ġtable": 2052,
      "\".": 2053,
      "ĠMed": 2054,
      "EN": 2055,
      "Ġclose": 2056,
      "()": 2057,
      "Ġmakes": 2058,
      "acy": 2059,
      "ners": 2060,
      "ĠApp": 2061,
      "ones": 2062,
      "Ġresearch": 2063,
      "Ġhy": 2064,
      "Ġwa": 2065,
      "Ġgovernment": 2066,
      "ĠBy": 2067,
      "Ġstrong": 2068,
      "'re": 2069,
      "ify": 2070,
      "Ġhalf": 2071,
      "af": 2072,
      "Ġcompan": 2073,
      "Ġfoc": 2074,
      "Ġface": 2075,
      "'ll": 2076,
      "ened": 2077,
      "rown": 2078,
      "Ġfilm": 2079,
      "ape": 2080,
      "Ġstory": 2081,
      "Ġspace": 2082,
      "Ġ,": 2083,
      "Ġmor": 2084,
      "OR": 2085,
      "Ġbegin": 2086,
      "illed": 2087,
      "Ġens": 2088,
      "ĠSchool": 2089,
      "ler": 2090,
      "Ġhot": 2091,
      "ĠIntern": 2092,
      "Ġhowever": 2093,
      "Ġproblem": 2094,
      "Ġ:": 2095,
      "Ġcomb": 2096,
      "Ġanal": 2097,
      "ĠWorld": 2098,
      "Ġatta": 2099,
      "Ġfile": 2100,
      "Ġ196": 2101,
      "Ġplayers": 2102,
      "Ġnet": 2103,
      "Ġcontact": 2104,
      "uture": 2105,
      "Ġnat": 2106,
      "ateg": 2107,
      "Ġbit": 2108,
      "Ġfre": 2109,
      "new": 2110,
      "Ġquestion": 2111,
      "15": 2112,
      "ino": 2113,
      "Ġrecomm": 2114,
      "Ġcommon": 2115,
      "oring": 2116,
      "ask": 2117,
      "Ġitem": 2118,
      "tic": 2119,
      "lege": 2120,
      "reet": 2121,
      "=\"": 2122,
      "ĠWill": 2123,
      "Ġcomes": 2124,
      "Ġrecommend": 2125,
      "Ġbar": 2126,
      "ĠComp": 2127,
      "irth": 2128,
      "Ġdue": 2129,
      "Ġvarious": 2130,
      "ĠAss": 2131,
      "angu": 2132,
      "Ġinstall": 2133,
      "Ġbecame": 2134,
      "Ġreview": 2135,
      "Ġauthor": 2136,
      "ource": 2137,
      "mb": 2138,
      "roll": 2139,
      "Ġtrue": 2140,
      "Ġstarted": 2141,
      "ĠJan": 2142,
      "ĠEurope": 2143,
      "Ġ+": 2144,
      "ĠMin": 2145,
      "Ġpolit": 2146,
      "ĠYork": 2147,
      "Ġredu": 2148,
      "urity": 2149,
      "Ġfive": 2150,
      "ĠInst": 2151,
      "Ġcut": 2152,
      "selves": 2153,
      "Ġinvol": 2154,
      "Ġrange": 2155,
      "table": 2156,
      "Ġhimself": 2157,
      "Ġfriends": 2158,
      "Ġdoing": 2159,
      "verage": 2160,
      "ĠGr": 2161,
      "Ġeither": 2162,
      "Ġrepresent": 2163,
      "Ġbuilding": 2164,
      "ĠBrit": 2165,
      "Ġperiod": 2166,
      "utions": 2167,
      "ĠRep": 2168,
      "Ġbring": 2169,
      "Ġopportun": 2170,
      "Ġgetting": 2171,
      "gs": 2172,
      "Ġpack": 2173,
      "ental": 2174,
      "Ġsuper": 2175,
      "Ġtem": 2176,
      "Ġsound": 2177,
      "Ġprop": 2178,
      "fully": 2179,
      "ĠNorth": 2180,
      "Ġtown": 2181,
      "16": 2182,
      "Ġupd": 2183,
      "ÑĤ": 2184,
      "Ġobject": 2185,
      "Ġprice": 2186,
      "Ġ2018": 2187,
      "In": 2188,
      "?\"": 2189,
      "Ġresults": 2190,
      "Ġx": 2191,
      "Ġconcer": 2192,
      "Ġselect": 2193,
      "ĠThen": 2194,
      "Ġenter": 2195,
      "artment": 2196,
      "pa": 2197,
      "Ġsat": 2198,
      "ĠTH": 2199,
      "ĠState": 2200,
      "ĠEnglish": 2201,
      "Ġsoon": 2202,
      "Ġtaken": 2203,
      "ored": 2204,
      "Ġdoc": 2205,
      "Ġhours": 2206,
      "Ġident": 2207,
      "Ġenc": 2208,
      "17": 2209,
      "ille": 2210,
      "ternal": 2211,
      "Ġconsider": 2212,
      "Ġhistory": 2213,
      "vironment": 2214,
      "isk": 2215,
      "Ġheld": 2216,
      "Ġfund": 2217,
      "Ġz": 2218,
      "Ġnecess": 2219,
      "ĠCity": 2220,
      "eter": 2221,
      "uff": 2222,
      "Ġdeal": 2223,
      "Ġfall": 2224,
      "Ġ100": 2225,
      "Ġpie": 2226,
      "ĠPar": 2227,
      "Ġwond": 2228,
      "Ġbed": 2229,
      "oid": 2230,
      "ume": 2231,
      "aced": 2232,
      "Ġcir": 2233,
      "oll": 2234,
      "Ġprob": 2235,
      "idence": 2236,
      "ains": 2237,
      "Ġ24": 2238,
      "ĠNow": 2239,
      "Ġri": 2240,
      "hird": 2241,
      "Ġcharacter": 2242,
      "Ġsays": 2243,
      "Ġpurch": 2244,
      "Ġalmost": 2245,
      "Ġmot": 2246,
      "Ġ25": 2247,
      "ibility": 2248,
      "ĠJe": 2249,
      "Ġfuture": 2250,
      "ĠHigh": 2251,
      "over": 2252,
      "ĠWar": 2253,
      "ibr": 2254,
      "Ġwhite": 2255,
      "third": 2256,
      "Ġfurther": 2257,
      "Ġquite": 2258,
      "ague": 2259,
      "Ġexist": 2260,
      "Ġrespons": 2261,
      "Ġest": 2262,
      "ĠQu": 2263,
      "ogn": 2264,
      "Ġmag": 2265,
      "ĠBar": 2266,
      "NNNNNNNN": 2267,
      "raph": 2268,
      "Ġaddress": 2269,
      "aving": 2270,
      "Ġsong": 2271,
      "Ġhuman": 2272,
      "ublic": 2273,
      "ply": 2274,
      "Ġpict": 2275,
      "iously": 2276,
      "itted": 2277,
      "tem": 2278,
      "Ġpress": 2279,
      "anta": 2280,
      "pped": 2281,
      "Ġtool": 2282,
      "Ġjob": 2283,
      "Ġarr": 2284,
      "irm": 2285,
      "ĠPer": 2286,
      "Ġsugg": 2287,
      "Ġansw": 2288,
      "Ġdoesn": 2289,
      "Ġsuggest": 2290,
      "ledge": 2291,
      "tered": 2292,
      "11": 2293,
      "ilities": 2294,
      "Ġlab": 2295,
      "ĠCounty": 2296,
      "leased": 2297,
      "itten": 2298,
      "ĠEl": 2299,
      "ĠGerman": 2300,
      "ĠApr": 2301,
      "uf": 2302,
      "Ġminutes": 2303,
      "Ġnothing": 2304,
      "ources": 2305,
      "ively": 2306,
      "Ġbeautiful": 2307,
      "Ġlinks": 2308,
      "Ġreceived": 2309,
      "Ġsimple": 2310,
      "Ġmonths": 2311,
      "Ġgeneral": 2312,
      "Ġdidn": 2313,
      "ĠAb": 2314,
      "ĠHar": 2315,
      "Ġbreak": 2316,
      "ham": 2317,
      "ĠHer": 2318,
      "Ġshare": 2319,
      "ĠYour": 2320,
      "ĠReg": 2321,
      "vert": 2322,
      "Ġnews": 2323,
      "anc": 2324,
      "na": 2325,
      "Ġbuy": 2326,
      "IS": 2327,
      "Ġproperty": 2328,
      "Ġcontent": 2329,
      "Ġblack": 2330,
      "Ġposition": 2331,
      "ilar": 2332,
      "Ġinde": 2333,
      "ott": 2334,
      "Ġactually": 2335,
      "ĠSome": 2336,
      "Ġaccount": 2337,
      "Ġprofessional": 2338,
      "ĠPol": 2339,
      "ĠServ": 2340,
      "umn": 2341,
      "iab": 2342,
      "book": 2343,
      "Ġbegan": 2344,
      "Ġcult": 2345,
      "aged": 2346,
      "ĠDr": 2347,
      "Ġround": 2348,
      "Ġrather": 2349,
      "Ġcompanies": 2350,
      "Ġlat": 2351,
      "Ġdeb": 2352,
      "Ġred": 2353,
      "ional": 2354,
      "Ġbenef": 2355,
      "Ġidea": 2356,
      "ha": 2357,
      "ĠSec": 2358,
      "200": 2359,
      "ĠAf": 2360,
      "14": 2361,
      "âĢ¦": 2362,
      "Ġfeatures": 2363,
      "Ð¸": 2364,
      "Ġfire": 2365,
      "AS": 2366,
      "Ġhands": 2367,
      "Ġtrack": 2368,
      "pecially": 2369,
      "resh": 2370,
      "Ġbirth": 2371,
      "Ġthird": 2372,
      "ands": 2373,
      "Ġvideo": 2374,
      "ability": 2375,
      "ĠTra": 2376,
      "Ġsaw": 2377,
      "iple": 2378,
      "Ġsearch": 2379,
      "AL": 2380,
      "Ġrequired": 2381,
      "Ġstruct": 2382,
      "ĠAug": 2383,
      "tt": 2384,
      "Ġtext": 2385,
      "Ġstyle": 2386,
      "Ġstay": 2387,
      "bal": 2388,
      "Ġindustry": 2389,
      "_,": 2390,
      "Ġengine": 2391,
      "uary": 2392,
      "Ġcrit": 2393,
      "Ġmillion": 2394,
      "Ġsize": 2395,
      "Ġeverything": 2396,
      "Ġpubl": 2397,
      "Ġmeas": 2398,
      "Ġentire": 2399,
      "Ġanything": 2400,
      "Ġfront": 2401,
      "ĠFrom": 2402,
      "ĠKing": 2403,
      "Ġclear": 2404,
      "Ġhope": 2405,
      "ided": 2406,
      "ule": 2407,
      "Ġhost": 2408,
      "ĠMarch": 2409,
      "Ġexam": 2410,
      "Ġrelations": 2411,
      "Ġele": 2412,
      "Ġliving": 2413,
      "idge": 2414,
      "yl": 2415,
      "Ġclaim": 2416,
      "Ġsubject": 2417,
      "ĠAustral": 2418,
      "Ġwall": 2419,
      "Ġinstru": 2420,
      "Ġtaking": 2421,
      "rs": 2422,
      "bum": 2423,
      "Ġess": 2424,
      "Ġsil": 2425,
      "rench": 2426,
      "ĠSep": 2427,
      "Ġlay": 2428,
      "Ġcannot": 2429,
      "tour": 2430,
      "omes": 2431,
      "ishing": 2432,
      "22": 2433,
      "ember": 2434,
      "Ġatt": 2435,
      "Ġtold": 2436,
      "Ġbelieve": 2437,
      "ĠDis": 2438,
      "back": 2439,
      "ada": 2440,
      "Ġroad": 2441,
      "ĠApril": 2442,
      "icy": 2443,
      "uation": 2444,
      "eth": 2445,
      "lu": 2446,
      "ĠSw": 2447,
      "Ġtravel": 2448,
      "iter": 2449,
      "thern": 2450,
      "cil": 2451,
      "lex": 2452,
      "Ġphys": 2453,
      "Ġexpress": 2454,
      "amed": 2455,
      "ĠFin": 2456,
      "xim": 2457,
      "Ġmiss": 2458,
      "Ġsix": 2459,
      "pping": 2460,
      "Ġ194": 2461,
      "Ġabs": 2462,
      "ĠWhile": 2463,
      "Ġadded": 2464,
      "Ġdiscuss": 2465,
      "elt": 2466,
      "Ġregard": 2467,
      "IT": 2468,
      "Ġwords": 2469,
      "Ġbra": 2470,
      "ĠSee": 2471,
      "cto": 2472,
      "Ġtour": 2473,
      "ification": 2474,
      "ergy": 2475,
      "ĠPa": 2476,
      "Ġdepend": 2477,
      "Ġimplement": 2478,
      "Ġtotal": 2479,
      "Ġbuilt": 2480,
      "Ġhon": 2481,
      "Ġexc": 2482,
      "Ġmember": 2483,
      "Ġstudy": 2484,
      "hin": 2485,
      "RE": 2486,
      "unch": 2487,
      "Ġinit": 2488,
      "Ġill": 2489,
      "Ġassist": 2490,
      "Ġassoci": 2491,
      "Ġimage": 2492,
      "ĠPre": 2493,
      "iable": 2494,
      "Ġeconom": 2495,
      "ises": 2496,
      "Ġdiffic": 2497,
      "ety": 2498,
      "Ġoffice": 2499,
      "ese": 2500,
      "Ġground": 2501,
      "Ġformer": 2502,
      "time": 2503,
      "Ġplease": 2504,
      "Ġgames": 2505,
      "Ġfinal": 2506,
      "Ġself": 2507,
      "ĠMa": 2508,
      "Ġtit": 2509,
      "Ġcreated": 2510,
      "umb": 2511,
      "tou": 2512,
      "asing": 2513,
      "Ġconstru": 2514,
      "Ġbehind": 2515,
      "Ġcondition": 2516,
      "ival": 2517,
      "ĠPart": 2518,
      "Ġ2017": 2519,
      "Ġoffers": 2520,
      "Ġweb": 2521,
      "Ġrespect": 2522,
      "Ġprovided": 2523,
      "ma": 2524,
      "Ġcra": 2525,
      "ĠWest": 2526,
      "Ġaction": 2527,
      "ging": 2528,
      "Ġcred": 2529,
      "ĠTw": 2530,
      "tract": 2531,
      "LE": 2532,
      "pro": 2533,
      "ites": 2534,
      "13": 2535,
      "ators": 2536,
      "ĠJune": 2537,
      "ĠKe": 2538,
      "ama": 2539,
      "ires": 2540,
      "Ġeyes": 2541,
      "Ġtax": 2542,
      "cks": 2543,
      "Ġfather": 2544,
      "Ġmis": 2545,
      "arth": 2546,
      "medi": 2547,
      "Ġmatter": 2548,
      "Ġareas": 2549,
      "Ġasked": 2550,
      "Ġenvironment": 2551,
      "face": 2552,
      "tember": 2553,
      "Ġbrand": 2554,
      "vent": 2555,
      "top": 2556,
      "ondon": 2557,
      "Ġlocated": 2558,
      "Ġconditions": 2559,
      "Ġquestions": 2560,
      "Ġwide": 2561,
      "ĠPres": 2562,
      "Ġtrying": 2563,
      "Ġoriginal": 2564,
      "Ġstat": 2565,
      "ĠArt": 2566,
      "ancial": 2567,
      "Ġparty": 2568,
      "ĠBu": 2569,
      "iber": 2570,
      "ĠSoc": 2571,
      "arning": 2572,
      "Ġtraining": 2573,
      "ĠSm": 2574,
      "reg": 2575,
      "Ġrequest": 2576,
      "dd": 2577,
      "ĠJust": 2578,
      "Ġetc": 2579,
      "Ġpurp": 2580,
      "nding": 2581,
      "urance": 2582,
      "ground": 2583,
      "aching": 2584,
      "Ġheav": 2585,
      "Ġevents": 2586,
      "Ġext": 2587,
      "tomer": 2588,
      "Ġnatural": 2589,
      "ude": 2590,
      "Ġmoment": 2591,
      "ops": 2592,
      "gest": 2593,
      "pper": 2594,
      "ctober": 2595,
      "Ġ50": 2596,
      "ailed": 2597,
      "hus": 2598,
      "Ġten": 2599,
      "Ġgirl": 2600,
      "ensive": 2601,
      "Ġchall": 2602,
      "col": 2603,
      "eral": 2604,
      "Ġport": 2605,
      "Ġwood": 2606,
      "anguage": 2607,
      "Ġcases": 2608,
      "ager": 2609,
      "Ġissues": 2610,
      "Ġespecially": 2611,
      "ftw": 2612,
      "Ġversion": 2613,
      "rie": 2614,
      "ening": 2615,
      "ĠAugust": 2616,
      "Ġanim": 2617,
      "Ġperformance": 2618,
      "25": 2619,
      "Ġaud": 2620,
      "Ġamount": 2621,
      "ww": 2622,
      "Ġparticip": 2623,
      "Ġdate": 2624,
      "ffe": 2625,
      "Ġimprove": 2626,
      "ĠMc": 2627,
      "ĠLo": 2628,
      "Ġdam": 2629,
      "Ġinput": 2630,
      "!\"": 2631,
      "Ġprovides": 2632,
      "Ġobs": 2633,
      "Ġ2016": 2634,
      "urg": 2635,
      "Ġach": 2636,
      "Ġcell": 2637,
      "Ġtou": 2638,
      "Âł": 2639,
      "olution": 2640,
      "Ġmother": 2641,
      "Ġindic": 2642,
      "str": 2643,
      "Ġpopular": 2644,
      "oon": 2645,
      "Ġfocus": 2646,
      "ades": 2647,
      "Ġerr": 2648,
      "ftware": 2649,
      "oud": 2650,
      "Ġwritten": 2651,
      "Ġsimply": 2652,
      "Ġcomput": 2653,
      "ĠCor": 2654,
      "ufact": 2655,
      "ĠDon": 2656,
      "Ġsimilar": 2657,
      "Ñģ": 2658,
      "Ġapplication": 2659,
      "ĠSeptember": 2660,
      "ĠJuly": 2661,
      "Ġprivate": 2662,
      "Ġsle": 2663,
      "ysis": 2664,
      "come": 2665,
      "Ġmach": 2666,
      "Ġtechnology": 2667,
      "ming": 2668,
      "head": 2669,
      "gress": 2670,
      "Ġ2019": 2671,
      "Ġpoints": 2672,
      "Ġut": 2673,
      "ĠStr": 2674,
      "Ġmanagement": 2675,
      "Ġletter": 2676,
      "Ġant": 2677,
      "Ġaccording": 2678,
      "Ġjour": 2679,
      "adem": 2680,
      "Ġdig": 2681,
      "Ġsou": 2682,
      "mit": 2683,
      "ĠLondon": 2684,
      "li": 2685,
      "Ġregular": 2686,
      "Ġalbum": 2687,
      "Ġcustomers": 2688,
      "Ġcard": 2689,
      "ĠOctober": 2690,
      "itor": 2691,
      "ĠJanuary": 2692,
      "ĠBritish": 2693,
      "where": 2694,
      "ĠII": 2695,
      "Ġren": 2696,
      "Ġneeded": 2697,
      "Ġsell": 2698,
      "itche": 2699,
      "Ġfootball": 2700,
      "ĠAcc": 2701,
      "Ġtakes": 2702,
      "Ġcover": 2703,
      "Ġcorre": 2704,
      "Ġattend": 2705,
      "**": 2706,
      "ee": 2707,
      "Ġĉ": 2708,
      "._": 2709,
      "Ġsignific": 2710,
      "rought": 2711,
      "Ġfig": 2712,
      "Ġsun": 2713,
      "Ð¾Ð": 2714,
      "Ġap": 2715,
      "Ġwriting": 2716,
      "Ġcareer": 2717,
      "ĠFrench": 2718,
      "Ġglo": 2719,
      "Ġmedia": 2720,
      "Ġincludes": 2721,
      "Ġknowledge": 2722,
      "Ġdiv": 2723,
      "Ġrelated": 2724,
      "oice": 2725,
      "Ġofficial": 2726,
      "Ġsomeone": 2727,
      "Ġrecogn": 2728,
      "Ġbad": 2729,
      "Ġenergy": 2730,
      "Ġsett": 2731,
      "Ġdisplay": 2732,
      "Ġmodel": 2733,
      "Ġstar": 2734,
      "Ġfa": 2735,
      "Ġexperien": 2736,
      "ountain": 2737,
      "ĠNor": 2738,
      "ĠPlease": 2739,
      "osing": 2740,
      "do": 2741,
      "gi": 2742,
      "Ġdesigned": 2743,
      "Ġitself": 2744,
      "23": 2745,
      "ĠPark": 2746,
      "ED": 2747,
      "Ġdeg": 2748,
      "Ġthemselves": 2749,
      "Ġarri": 2750,
      "Ġmatch": 2751,
      "Ġstaff": 2752,
      "Ġdownload": 2753,
      "Ġensure": 2754,
      "Ġdoor": 2755,
      "Ġsqu": 2756,
      "ĠAct": 2757,
      "ana": 2758,
      "cember": 2759,
      "astic": 2760,
      "Ġrunning": 2761,
      "Ġfell": 2762,
      "ĠStud": 2763,
      "ĠSer": 2764,
      "Ġcoming": 2765,
      "Ġannoun": 2766,
      "Ġprobably": 2767,
      "tee": 2768,
      "Ġpaper": 2769,
      "hips": 2770,
      "``": 2771,
      "ovember": 2772,
      "Ġmorning": 2773,
      "Ġbox": 2774,
      "Ġnational": 2775,
      "Ġseems": 2776,
      "Ġnor": 2777,
      "ĠGeor": 2778,
      "hib": 2779,
      "Ġforward": 2780,
      "Ġson": 2781,
      "ÑĢ": 2782,
      "iol": 2783,
      "Ġleave": 2784,
      "aves": 2785,
      "ĠFeb": 2786,
      "Ġincluded": 2787,
      "ries": 2788,
      "Ġplayed": 2789,
      "ding": 2790,
      "Ġunique": 2791,
      "right": 2792,
      "thin": 2793,
      "Ġtalk": 2794,
      "',": 2795,
      "irit": 2796,
      "Ġinstead": 2797,
      "Ġsold": 2798,
      "ĠAg": 2799,
      "Ġoutside": 2800,
      "Ġcolor": 2801,
      "Ġdom": 2802,
      "ux": 2803,
      "Ġgave": 2804,
      "Ġappe": 2805,
      "iddle": 2806,
      "Ġeducation": 2807,
      "Ġmessage": 2808,
      "ĠHouse": 2809,
      "ned": 2810,
      "ĠUs": 2811,
      "engt": 2812,
      "Ġpers": 2813,
      "Ġ21": 2814,
      "Ġissue": 2815,
      "Ġhor": 2816,
      "itting": 2817,
      "Ġful": 2818,
      "clus": 2819,
      "ĠHist": 2820,
      "apan": 2821,
      "Ġcop": 2822,
      "Ġgen": 2823,
      "Ġwatch": 2824,
      "Ġchanges": 2825,
      "Ġwalk": 2826,
      "fficient": 2827,
      "Ġdecision": 2828,
      "iday": 2829,
      "ady": 2830,
      "Ġ2015": 2831,
      "Ġpercent": 2832,
      "ĠInc": 2833,
      "action": 2834,
      "Ġpotential": 2835,
      "itional": 2836,
      "Ġbase": 2837,
      "Ġsho": 2838,
      "Ġlate": 2839,
      "Ġrad": 2840,
      "ĠDav": 2841,
      "Ġintrodu": 2842,
      "Ġsepar": 2843,
      "Ġdraw": 2844,
      "Ġarch": 2845,
      "iction": 2846,
      "ĠAfric": 2847,
      "IC": 2848,
      "Ġlost": 2849,
      "Ġhandle": 2850,
      "haps": 2851,
      "ĠDep": 2852,
      "erc": 2853,
      "raphy": 2854,
      "Ġlonger": 2855,
      "era": 2856,
      "Ġoil": 2857,
      "ĠMus": 2858,
      "ĠDecember": 2859,
      "Ġlikely": 2860,
      "ĠNovember": 2861,
      "attle": 2862,
      "Ġready": 2863,
      "21": 2864,
      "ration": 2865,
      "Ġwonder": 2866,
      "ĠRuss": 2867,
      "Ġvill": 2868,
      "ili": 2869,
      "ĠSan": 2870,
      "Ġnecessary": 2871,
      "oke": 2872,
      "Ġ```": 2873,
      "lin": 2874,
      "pri": 2875,
      "Ġneg": 2876,
      "Ġhear": 2877,
      "Ġthroughout": 2878,
      "ĠVal": 2879,
      "antly": 2880,
      "dom": 2881,
      "Ġexec": 2882,
      "Ġund": 2883,
      "Ġswitch": 2884,
      "ĠJo": 2885,
      "ox": 2886,
      "Ġusually": 2887,
      "Ġtrust": 2888,
      "ara": 2889,
      "Ġextre": 2890,
      "Ġcoll": 2891,
      "Ġstore": 2892,
      "airs": 2893,
      "nal": 2894,
      "ĠLa": 2895,
      "Ġfast": 2896,
      "Ġthin": 2897,
      "ĠTHE": 2898,
      "Ġways": 2899,
      "oking": 2900,
      "Ġfavor": 2901,
      "Ġlink": 2902,
      "Ġscore": 2903,
      "ceed": 2904,
      "Ġdeep": 2905,
      "bor": 2906,
      "ĠGener": 2907,
      "OM": 2908,
      "Ġchoose": 2909,
      "Ġyourself": 2910,
      "Ġinside": 2911,
      "Ġreleased": 2912,
      "aily": 2913,
      "itary": 2914,
      "acher": 2915,
      "Ġrole": 2916,
      "bert": 2917,
      "Ġcontract": 2918,
      "Ġagree": 2919,
      "Ġanswer": 2920,
      "GT": 2921,
      "icro": 2922,
      "Ġcommunic": 2923,
      "ĠOf": 2924,
      "Ġoption": 2925,
      "Ġrisk": 2926,
      "Ġ--": 2927,
      "ĠAdd": 2928,
      "Ġinj": 2929,
      "Ġworked": 2930,
      "Ġextra": 2931,
      "Ġadditional": 2932,
      "Ġhigher": 2933,
      "oura": 2934,
      "Ġsafe": 2935,
      "Ġwanted": 2936,
      "ĠCons": 2937,
      "Ġ195": 2938,
      "Ġbooks": 2939,
      "Ġrate": 2940,
      "Ġdi": 2941,
      "ĠAir": 2942,
      "ĠĠĠĠĠĠĠĠĠĠĠĠĠĠĠ": 2943,
      "Ġprim": 2944,
      "Ġcause": 2945,
      "Ġpret": 2946,
      "Ġago": 2947,
      "Ġ2014": 2948,
      "Ġswe": 2949,
      "Ġgrad": 2950,
      "ĠAc": 2951,
      "Ð½": 2952,
      "aging": 2953,
      "Ġideas": 2954,
      "Ġpan": 2955,
      "ashing": 2956,
      "Ġsystems": 2957,
      "Ġshows": 2958,
      "Ġdifficult": 2959,
      "hold": 2960,
      "ength": 2961,
      "Ġaf": 2962,
      "Ġoptions": 2963,
      "ules": 2964,
      "ĠBro": 2965,
      "Ġstep": 2966,
      "Ġmodern": 2967,
      "Ġpick": 2968,
      "iment": 2969,
      "Ġreceive": 2970,
      "ministr": 2971,
      "ĠTrans": 2972,
      "Ġemail": 2973,
      "Ġbrought": 2974,
      "Ġproblems": 2975,
      "bit": 2976,
      "key": 2977,
      "Ġapproach": 2978,
      "hood": 2979,
      "uge": 2980,
      "ci": 2981,
      "Ġautom": 2982,
      "Ġfinancial": 2983,
      "ĠJapan": 2984,
      "Ġcollect": 2985,
      "ae": 2986,
      "--------": 2987,
      "):": 2988,
      "enty": 2989,
      "ĠExternal": 2990,
      "Ġmanufact": 2991,
      "anced": 2992,
      "uted": 2993,
      "sy": 2994,
      "Ġep": 2995,
      "Ġexact": 2996,
      "ĠLet": 2997,
      "Ġparts": 2998,
      "Ġproduction": 2999,
      "ĠSta": 3000,
      "Ġdetails": 3001,
      "ram": 3002,
      "Ġdefin": 3003,
      "Ġmaintain": 3004,
      "ĠFirst": 3005,
      "Ġled": 3006,
      "ruary": 3007,
      "Ġheard": 3008,
      "aint": 3009,
      "Ġfit": 3010,
      "Ġsens": 3011,
      "Ġlog": 3012,
      "Ġcustomer": 3013,
      "Ġspeak": 3014,
      "cript": 3015,
      "Ġclub": 3016,
      "Ġimmedi": 3017,
      "Ġincrease": 3018,
      "Ġloss": 3019,
      "ĠThanks": 3020,
      "Ġwoman": 3021,
      "ĠInternational": 3022,
      "Ġcross": 3023,
      "Ġsoftware": 3024,
      "Ġsecurity": 3025,
      "ĠMark": 3026,
      "Ġfort": 3027,
      "Ġhair": 3028,
      "Ġcurrently": 3029,
      "ĠMon": 3030,
      "Ġvia": 3031,
      "Ġaccept": 3032,
      "ID": 3033,
      "ached": 3034,
      "Ġusers": 3035,
      "wise": 3036,
      "nes": 3037,
      "Ġveh": 3038,
      "Ġpublished": 3039,
      "ĠChar": 3040,
      "Ġdest": 3041,
      "'d": 3042,
      "men": 3043,
      "idered": 3044,
      "izing": 3045,
      "OU": 3046,
      "Ġlower": 3047,
      "Ġeasily": 3048,
      "Ġpractice": 3049,
      "iff": 3050,
      "Ġ2010": 3051,
      "ĠAmerica": 3052,
      "Ġpretty": 3053,
      "ĠHo": 3054,
      "Ġ2013": 3055,
      "ĠProf": 3056,
      "Ġtar": 3057,
      "Ġsave": 3058,
      "Ġcommand": 3059,
      "Ġgold": 3060,
      "Ġdark": 3061,
      "\")": 3062,
      "sequ": 3063,
      "ĠPhil": 3064,
      "Ġ40": 3065,
      "Ġhappy": 3066,
      "ampions": 3067,
      "Ġreading": 3068,
      "mon": 3069,
      "Ġborn": 3070,
      "Ġ2012": 3071,
      "hous": 3072,
      "Ġdecl": 3073,
      "Ġcontrib": 3074,
      "now": 3075,
      "60": 3076,
      "like": 3077,
      "ĠItal": 3078,
      "AM": 3079,
      "Ġboard": 3080,
      "Ġcontinue": 3081,
      "ĠFebruary": 3082,
      "Ġinternational": 3083,
      "Ġconsum": 3084,
      "24": 3085,
      "istic": 3086,
      "OS": 3087,
      "Ġ23": 3088,
      "Ġextreme": 3089,
      "Ġbi": 3090,
      "Ġstandard": 3091,
      "ĠGreat": 3092,
      "wh": 3093,
      "Ġdefe": 3094,
      "Ġdry": 3095,
      "Ġnamed": 3096,
      "Ġtreatment": 3097,
      "ples": 3098,
      "Ġdocument": 3099,
      "ties": 3100,
      "ari": 3101,
      "Ġfeet": 3102,
      "atory": 3103,
      "Ġfine": 3104,
      "OT": 3105,
      "ĠWilliam": 3106,
      "Ġcirc": 3107,
      "Ġdat": 3108,
      "ermine": 3109,
      "atform": 3110,
      "Ġsolution": 3111,
      "Ġitems": 3112,
      "Ġopportunity": 3113,
      "Ġisn": 3114,
      "Ġsend": 3115,
      "uel": 3116,
      "Ġsense": 3117,
      "erve": 3118,
      "Ġinflu": 3119,
      "abor": 3120,
      "ror": 3121,
      "Ġwhose": 3122,
      "Ġmyself": 3123,
      "Ġnature": 3124,
      "Ġlooked": 3125,
      "ĠIndian": 3126,
      "erous": 3127,
      "Ġmix": 3128,
      "rents": 3129,
      "Ġprep": 3130,
      "Ġmass": 3131,
      "ĠPo": 3132,
      "azing": 3133,
      "ĠEngland": 3134,
      "Ġinsp": 3135,
      "duct": 3136,
      "ky": 3137,
      "inary": 3138,
      "Ġfix": 3139,
      "Ġfelt": 3140,
      "ĠUp": 3141,
      "ĠAng": 3142,
      "Ġwrite": 3143,
      "Ġestablished": 3144,
      "Ġtowards": 3145,
      "ĠSim": 3146,
      "Ġeveryone": 3147,
      "roups": 3148,
      "Ġpath": 3149,
      "Ġlearning": 3150,
      "Ġarg": 3151,
      "rel": 3152,
      "ipment": 3153,
      "Ġtried": 3154,
      "tries": 3155,
      "ald": 3156,
      "Ġaverage": 3157,
      "ault": 3158,
      "itchen": 3159,
      "ĠPat": 3160,
      "Ġknew": 3161,
      "reng": 3162,
      "ĠRed": 3163,
      "Ġrev": 3164,
      "Ġret": 3165,
      "hr": 3166,
      "icles": 3167,
      "ought": 3168,
      "ĠIndia": 3169,
      "ĠGl": 3170,
      "ET": 3171,
      "Ġconsidered": 3172,
      "Ġjud": 3173,
      "sp": 3174,
      "ĠAre": 3175,
      "Ġapply": 3176,
      "ological": 3177,
      "Ġinn": 3178,
      "iring": 3179,
      "Ġmention": 3180,
      "Ġphone": 3181,
      "Ġquickly": 3182,
      "Ġcomments": 3183,
      "Ġimpact": 3184,
      "Ġexcell": 3185,
      "ND": 3186,
      "40": 3187,
      "Ġturned": 3188,
      "Ġple": 3189,
      "ĠCollege": 3190,
      "anch": 3191,
      "Ġlives": 3192,
      "Ġlanguage": 3193,
      "Ġstop": 3194,
      "hel": 3195,
      "Ġskin": 3196,
      "lebr": 3197,
      "ĠMore": 3198,
      "Ġterms": 3199,
      "Ã¡": 3200,
      "uk": 3201,
      "Ġlocation": 3202,
      "AP": 3203,
      "Ġsche": 3204,
      "oses": 3205,
      "undred": 3206,
      "aur": 3207,
      "ĠWind": 3208,
      "arr": 3209,
      "ville": 3210,
      "case": 3211,
      "Ġwife": 3212,
      "tempt": 3213,
      "ugh": 3214,
      "Ġplant": 3215,
      "Ġnorm": 3216,
      "asons": 3217,
      "Ġ2011": 3218,
      "atter": 3219,
      "Ġserved": 3220,
      "80": 3221,
      "Ġ22": 3222,
      "Ġacqu": 3223,
      "Ġweeks": 3224,
      "Ġsaf": 3225,
      "ension": 3226,
      "Ġactivities": 3227,
      "Ġver": 3228,
      "Ġband": 3229,
      "estern": 3230,
      "Ġmob": 3231,
      "isc": 3232,
      "Ġlooks": 3233,
      "mercial": 3234,
      "Ġsummer": 3235,
      "Ġmultiple": 3236,
      "Ġdrive": 3237,
      "light": 3238,
      "Ġmer": 3239,
      "Ġfrequ": 3240,
      "Ġchoice": 3241,
      "//": 3242,
      "ams": 3243,
      "yn": 3244,
      "Ġscreen": 3245,
      "Ġconv": 3246,
      "Ġweight": 3247,
      "aughter": 3248,
      "oo": 3249,
      "Ġsometimes": 3250,
      "Ġaff": 3251,
      "Ġcand": 3252,
      "Ġobtain": 3253,
      "ĠPresident": 3254,
      "aries": 3255,
      "unt": 3256,
      "ĠRom": 3257,
      "LL": 3258,
      ".)": 3259,
      "Ġfair": 3260,
      "Ġcentury": 3261,
      "Ġleading": 3262,
      "Ġhol": 3263,
      "ĠCour": 3264,
      "Ġball": 3265,
      "ĠAssoci": 3266,
      "ĠLord": 3267,
      "year": 3268,
      "ĠIm": 3269,
      "ogle": 3270,
      "Ġstatements": 3271,
      "ĠOther": 3272,
      "Ġimm": 3273,
      "set": 3274,
      "Ġprior": 3275,
      "Ġslow": 3276,
      "Ġqual": 3277,
      "ĠCenter": 3278,
      "Ġspeed": 3279,
      "ees": 3280,
      "Ġcorrect": 3281,
      "ĠMich": 3282,
      "Ġclients": 3283,
      "Ġgrowt": 3284,
      "Ġappoint": 3285,
      "Ġgrowth": 3286,
      "text": 3287,
      "wor": 3288,
      "isf": 3289,
      "Ġchurch": 3290,
      "Ġcourt": 3291,
      "Ġnetwork": 3292,
      "aches": 3293,
      "Ġge": 3294,
      "ĠMiss": 3295,
      "band": 3296,
      "Ġintegr": 3297,
      "Ġaffect": 3298,
      "itation": 3299,
      "Ġnice": 3300,
      "ny": 3301,
      "Ġhour": 3302,
      "Ġmid": 3303,
      "Ġplaces": 3304,
      "wood": 3305,
      "ĠBlack": 3306,
      "apt": 3307,
      "Ġgives": 3308,
      "amb": 3309,
      "Ġarticle": 3310,
      "Ġvariety": 3311,
      "ĠPri": 3312,
      "Ġattention": 3313,
      "ivil": 3314,
      "onse": 3315,
      "Ġcalcul": 3316,
      "ĠOff": 3317,
      "ĠCalif": 3318,
      "ĠEvery": 3319,
      "We": 3320,
      "Ġemb": 3321,
      "Ġuses": 3322,
      "Ġ!": 3323,
      "Ġmedical": 3324,
      "Ġgoal": 3325,
      "ĠEm": 3326,
      "Ġrecent": 3327,
      "iding": 3328,
      "Ġsal": 3329,
      "99": 3330,
      "Ġstation": 3331,
      "ĠBel": 3332,
      "ĠIr": 3333,
      "Ġprevent": 3334,
      "Ġ27": 3335,
      "Ġsource": 3336,
      "ĠAlso": 3337,
      "Ġhistor": 3338,
      "Ġtypes": 3339,
      "Ġwhom": 3340,
      "Ġmeeting": 3341,
      "ĠMost": 3342,
      "Ġappropri": 3343,
      "ĠCr": 3344,
      "aign": 3345,
      "ĠAny": 3346,
      "Ġanyone": 3347,
      "Ġprojects": 3348,
      "ĠUK": 3349,
      "Ġsales": 3350,
      "ica": 3351,
      "Ġbroad": 3352,
      "Ġbal": 3353,
      "....": 3354,
      "Ġ26": 3355,
      "ĠIN": 3356,
      "lands": 3357,
      "Ġleaders": 3358,
      "Ġallows": 3359,
      "Ġcollection": 3360,
      "Ġ193": 3361,
      "Ġsection": 3362,
      "arden": 3363,
      "ĠWhy": 3364,
      "ius": 3365,
      "ornia": 3366,
      "Ġcy": 3367,
      "Ġfresh": 3368,
      "Ġ28": 3369,
      "Ġcool": 3370,
      "Ġgroups": 3371,
      "Ġtouch": 3372,
      "Ġstreng": 3373,
      "osition": 3374,
      "add": 3375,
      "Ġpassed": 3376,
      "Ġtemper": 3377,
      "Ġlevels": 3378,
      "Ġchance": 3379,
      "gar": 3380,
      "Ġpolitical": 3381,
      "Ġhous": 3382,
      "Ġpolicy": 3383,
      "illing": 3384,
      "field": 3385,
      "atives": 3386,
      "board": 3387,
      "Ġcredit": 3388,
      "Ġsus": 3389,
      "ugg": 3390,
      "ĠSch": 3391,
      "Ġdied": 3392,
      "It": 3393,
      "log": 3394,
      "Ġpoor": 3395,
      "well": 3396,
      "Ġstring": 3397,
      "ĠDuring": 3398,
      "Ġhundred": 3399,
      "itute": 3400,
      "Ġeye": 3401,
      "Ġdeter": 3402,
      "ĠMo": 3403,
      "su": 3404,
      "Ġpopulation": 3405,
      "Ġfollowed": 3406,
      "Ġtitle": 3407,
      "Ġdoub": 3408,
      "</": 3409,
      "based": 3410,
      "Ġinsurance": 3411,
      "Ġprec": 3412,
      "ĠWell": 3413,
      "ĠEast": 3414,
      "Ġmoved": 3415,
      "Ġdead": 3416,
      "ĠDay": 3417,
      "Ġaccom": 3418,
      "Ġplatform": 3419,
      "Ġcarry": 3420,
      "Ġfeed": 3421,
      "Ġworth": 3422,
      "Ġones": 3423,
      "Ġdecided": 3424,
      "Ġstatement": 3425,
      "Ġgiving": 3426,
      "Ġgreen": 3427,
      "thus": 3428,
      "Ġadj": 3429,
      "Ġconsist": 3430,
      "yond": 3431,
      "Ġprinc": 3432,
      "Ġdirectly": 3433,
      "Ġwrong": 3434,
      "itect": 3435,
      "giene": 3436,
      "yt": 3437,
      "Ġappl": 3438,
      "ibrary": 3439,
      "Ġcountries": 3440,
      "ĠSince": 3441,
      "born": 3442,
      "Ġsafety": 3443,
      "Ġcouple": 3444,
      "Ġinvolved": 3445,
      "ek": 3446,
      "ĠMor": 3447,
      "ĠCalifornia": 3448,
      "Ġcomputer": 3449,
      "thous": 3450,
      "Ġplayer": 3451,
      "ĠChurch": 3452,
      "Ġquar": 3453,
      "mas": 3454,
      "Ġvalues": 3455,
      "Ġdaily": 3456,
      "uses": 3457,
      "hest": 3458,
      "ĠSat": 3459,
      "que": 3460,
      "vey": 3461,
      "ĠChina": 3462,
      "Ġviol": 3463,
      "Ġavoid": 3464,
      "Ġdire": 3465,
      "Ġneigh": 3466,
      "Ġbrother": 3467,
      "Ġwish": 3468,
      "Ġskills": 3469,
      "ĠMany": 3470,
      "urb": 3471,
      "ĠFil": 3472,
      "Ġstudent": 3473,
      "Ġblood": 3474,
      "Ġterm": 3475,
      "erved": 3476,
      "mpor": 3477,
      "Ġsurpr": 3478,
      "then": 3479,
      "ords": 3480,
      "ĠCont": 3481,
      "Ġpurpose": 3482,
      "Ġplaying": 3483,
      "ĠPeople": 3484,
      "Ġclick": 3485,
      "earch": 3486,
      "Ġspirit": 3487,
      "imate": 3488,
      "rows": 3489,
      "ests": 3490,
      "cast": 3491,
      "sole": 3492,
      "Ġerror": 3493,
      "Ġremember": 3494,
      "Ġorigin": 3495,
      "tas": 3496,
      "itution": 3497,
      "mat": 3498,
      "Ġprotect": 3499,
      "Ġthous": 3500,
      "Ġvoice": 3501,
      "Ġban": 3502,
      "ĠMet": 3503,
      "Ġ2008": 3504,
      "Ġthus": 3505,
      "Ġdeveloped": 3506,
      "ĠĠĠĠĠĠĠĠĠ": 3507,
      "itable": 3508,
      "Ġcelebr": 3509,
      "ĠCap": 3510,
      "Ġpiece": 3511,
      "Ġload": 3512,
      "ĠDistr": 3513,
      "ils": 3514,
      "ounts": 3515,
      "Ġregion": 3516,
      "Ġnote": 3517,
      "ĠGet": 3518,
      "Ġmaterials": 3519,
      "omen": 3520,
      "Ġcorn": 3521,
      "althy": 3522,
      "Ġphotog": 3523,
      "rote": 3524,
      "Ġexpected": 3525,
      "ĠGeneral": 3526,
      "useum": 3527,
      "isions": 3528,
      "Ġattempt": 3529,
      "Ġran": 3530,
      "Ġoccur": 3531,
      "ipe": 3532,
      "ĠSystem": 3533,
      "Ġnorth": 3534,
      "ĠBra": 3535,
      "sec": 3536,
      "mission": 3537,
      "Ġrecently": 3538,
      "Ġblog": 3539,
      "bb": 3540,
      "Ġreturned": 3541,
      "Ġdescribed": 3542,
      "??": 3543,
      "Ġsort": 3544,
      "Ġpatients": 3545,
      "ĠLeague": 3546,
      "Ġability": 3547,
      "body": 3548,
      "Ġhighly": 3549,
      "__": 3550,
      "Ġexpert": 3551,
      "nds": 3552,
      "ivity": 3553,
      "ĠRec": 3554,
      "orage": 3555,
      "Ġdise": 3556,
      "Ġdouble": 3557,
      "Ġfight": 3558,
      "Ġoffe": 3559,
      "Ġprograms": 3560,
      "unic": 3561,
      "ĠDesign": 3562,
      "Ġminim": 3563,
      "ĠSE": 3564,
      "Ġ2009": 3565,
      "cies": 3566,
      "Ġfloor": 3567,
      "Ġcenter": 3568,
      "Ġoccas": 3569,
      "Ġlif": 3570,
      "Ġprevious": 3571,
      "Ġalone": 3572,
      "Ġbeginning": 3573,
      "Ġsubst": 3574,
      "Ġfeature": 3575,
      "Ġrelease": 3576,
      "Ġord": 3577,
      "Ġgoes": 3578,
      "ico": 3579,
      "Ġroll": 3580,
      "Ġcommit": 3581,
      "Ġdistrib": 3582,
      "ST": 3583,
      "ĠPal": 3584,
      "igation": 3585,
      "Ġfail": 3586,
      "Ġliter": 3587,
      "Ġpromot": 3588,
      "Ġeffective": 3589,
      "Ġseemed": 3590,
      "place": 3591,
      "Ġcomplex": 3592,
      "Ġpor": 3593,
      "Ġsouth": 3594,
      "Ġmov": 3595,
      "Ġspecies": 3596,
      "ĠPaul": 3597,
      "Ġalthough": 3598,
      "Ġteacher": 3599,
      "thes": 3600,
      "Ġcook": 3601,
      "Ġscri": 3602,
      "ĠOut": 3603,
      "Ġproviding": 3604,
      "nded": 3605,
      "Ġequipment": 3606,
      "ĠEuropean": 3607,
      "Ġconnect": 3608,
      "Ġdisp": 3609,
      "Ġlatest": 3610,
      "ĠStreet": 3611,
      "zz": 3612,
      "Ġreach": 3613,
      "Ġextend": 3614,
      "Ġkids": 3615,
      "ĠCheck": 3616,
      "porate": 3617,
      "Ġpred": 3618,
      "Ġaward": 3619,
      "off": 3620,
      "house": 3621,
      "ING": 3622,
      "Ġpurchase": 3623,
      "Ġlines": 3624,
      "Ġrights": 3625,
      "Ġencoura": 3626,
      "Ġorganization": 3627,
      "ida": 3628,
      "ĠMag": 3629,
      "Ġtherefore": 3630,
      "Ġindepend": 3631,
      "Ġâ": 3632,
      "Ġdevice": 3633,
      "ĠDan": 3634,
      "Ġdro": 3635,
      "Ġlength": 3636,
      "Ġsleep": 3637,
      "reme": 3638,
      "Ġplans": 3639,
      "Ġwarm": 3640,
      "Ġsatisf": 3641,
      "Ġcam": 3642,
      "Ġinitial": 3643,
      "Ġfurn": 3644,
      "Ġ**": 3645,
      "ilies": 3646,
      "Ġpositive": 3647,
      "ĠEven": 3648,
      "Ġfully": 3649,
      "Ġcas": 3650,
      "II": 3651,
      "Ġ...": 3652,
      "Ġemer": 3653,
      "ĠLaw": 3654,
      "Ġexcellent": 3655,
      "idents": 3656,
      "Ġproduced": 3657,
      "Ġglass": 3658,
      "Ġdress": 3659,
      "raft": 3660,
      "Ġdetermine": 3661,
      "ĠHome": 3662,
      "ĠAustralia": 3663,
      "ĠJames": 3664,
      "Ġded": 3665,
      "ĠCompany": 3666,
      "Ġwel": 3667,
      "Ġcampaign": 3668,
      "mitted": 3669,
      "ĠDavid": 3670,
      "Ġstage": 3671,
      "abase": 3672,
      "Ġforce": 3673,
      "Ġcast": 3674,
      "Ġcosts": 3675,
      "Ġbud": 3676,
      "rey": 3677,
      "Ġsuccessful": 3678,
      "://": 3679,
      "oming": 3680,
      "ett": 3681,
      "ĠOp": 3682,
      "aby": 3683,
      "Ġpicture": 3684,
      "ĠDirect": 3685,
      "Ġbur": 3686,
      "Ġmarketing": 3687,
      "ĠRiver": 3688,
      "Ġrelig": 3689,
      "alse": 3690,
      "cho": 3691,
      "Ġappropriate": 3692,
      "Ġcontinued": 3693,
      "ancy": 3694,
      "Ġfiles": 3695,
      "Ġtas": 3696,
      "ĠCanada": 3697,
      "Ġcapt": 3698,
      "ĠOver": 3699,
      "ĠFrance": 3700,
      "Ġcompletely": 3701,
      "?âĢĿ": 3702,
      "name": 3703,
      "ĠGroup": 3704,
      "Ġanalysis": 3705,
      "Ġconstruction": 3706,
      "Ġlegal": 3707,
      "ipped": 3708,
      "Ġfirm": 3709,
      "lim": 3710,
      "gen": 3711,
      "Ġcommercial": 3712,
      "akes": 3713,
      "ieved": 3714,
      "Ġamazing": 3715,
      "ĠTV": 3716,
      "Ġprogress": 3717,
      "ĠBook": 3718,
      "ĠDem": 3719,
      "ĠDel": 3720,
      "Ġparents": 3721,
      "Ġang": 3722,
      "Ġdream": 3723,
      "Ġsubs": 3724,
      "ĠJack": 3725,
      "Ġkitchen": 3726,
      "ĠCle": 3727,
      "Ġdegree": 3728,
      "ography": 3729,
      "Ġblock": 3730,
      "AAT": 3731,
      "Ġhit": 3732,
      "Ġtools": 3733,
      "Ġmachine": 3734,
      "You": 3735,
      "Ġopened": 3736,
      "Ġachieve": 3737,
      "Ġresources": 3738,
      "Ġlic": 3739,
      "ibly": 3740,
      "Ġperhaps": 3741,
      "odes": 3742,
      "chan": 3743,
      "Ġsignificant": 3744,
      "ously": 3745,
      "Ġblue": 3746,
      "Ġbank": 3747,
      "levision": 3748,
      "90": 3749,
      "hor": 3750,
      "Ġattack": 3751,
      "ĠCouncil": 3752,
      "ĠĠĠĠĠĠĠĠĠĠĠĠĠĠĠĠĠĠĠĠĠĠĠĠĠĠĠĠĠĠĠĠ": 3753,
      "Ġbath": 3754,
      "urt": 3755,
      "ava": 3756,
      "Ġadvanta": 3757,
      "ĠMac": 3758,
      "ĠOnce": 3759,
      "ences": 3760,
      "Ġprem": 3761,
      "Ġshown": 3762,
      "Ġinteresting": 3763,
      "Ġcompleted": 3764,
      "Ġrace": 3765,
      "Ġgreater": 3766,
      "ught": 3767,
      "Ġrock": 3768,
      "ĠMary": 3769,
      "Ġbot": 3770,
      "Ġchalleng": 3771,
      "else": 3772,
      "iles": 3773,
      "Ġthinking": 3774,
      "Ġannounced": 3775,
      "Ġgrand": 3776,
      "Ġfear": 3777,
      "Ġimages": 3778,
      "Ġessential": 3779,
      "Ġcold": 3780,
      "Ġimpress": 3781,
      "uate": 3782,
      "ĠÃ": 3783,
      "Ġwindow": 3784,
      "Ġeff": 3785,
      "Ġearl": 3786,
      "Ġfem": 3787,
      "bles": 3788,
      "iers": 3789,
      "Ġnearly": 3790,
      "27": 3791,
      "Ġnames": 3792,
      "Ġimag": 3793,
      "ston": 3794,
      "Ġrefer": 3795,
      "olute": 3796,
      "Ġdifference": 3797,
      "Ġconvers": 3798,
      "Ġreve": 3799,
      "Ġwrote": 3800,
      "ĠUse": 3801,
      "Ġeight": 3802,
      "Ġpen": 3803,
      "ĠHol": 3804,
      "ĠBus": 3805,
      "Ġcat": 3806,
      "Ġking": 3807,
      "Ġsurround": 3808,
      "ederal": 3809,
      "ĠRich": 3810,
      "ĠMal": 3811,
      "ĠList": 3812,
      "ĠDepartment": 3813,
      "Ġ2007": 3814,
      "Ġbeyond": 3815,
      "Ġ60": 3816,
      "Ġsav": 3817,
      "Ġadministr": 3818,
      "ĠGeorge": 3819,
      "lying": 3820,
      "Ġchanged": 3821,
      "Ġsale": 3822,
      "iation": 3823,
      "Ġplaced": 3824,
      "mar": 3825,
      "mark": 3826,
      "Ġreported": 3827,
      "Ġimmediately": 3828,
      "Ġsoft": 3829,
      "istry": 3830,
      "Ġschools": 3831,
      "Ġcab": 3832,
      "Ġresponse": 3833,
      "==": 3834,
      "ĠGoogle": 3835,
      "ĠJes": 3836,
      "ospital": 3837,
      "Ġsea": 3838,
      "duc": 3839,
      "Ġwild": 3840,
      "Ġhuge": 3841,
      "Ġsituation": 3842,
      "iling": 3843,
      "uments": 3844,
      "Ġhus": 3845,
      "Ġappre": 3846,
      "Ġlimited": 3847,
      "ĠRem": 3848,
      "ĠSen": 3849,
      "Ġ29": 3850,
      "Ġden": 3851,
      "Ġsaying": 3852,
      "utive": 3853,
      "overed": 3854,
      "Ġmiles": 3855,
      "ĠProv": 3856,
      "ĠService": 3857,
      "Ġmaster": 3858,
      "ĠRoy": 3859,
      "ION": 3860,
      "ĠMrs": 3861,
      "iced": 3862,
      "ĠMod": 3863,
      "aran": 3864,
      "Ġdetermin": 3865,
      "Ġstock": 3866,
      "ĠBer": 3867,
      "ĠSto": 3868,
      "26": 3869,
      "Ġvillage": 3870,
      "Ġspent": 3871,
      "order": 3872,
      "ĠHealth": 3873,
      "Ġsurface": 3874,
      "ruit": 3875,
      "Ġrequirements": 3876,
      "Ġtrip": 3877,
      "Ġtransform": 3878,
      "Ġallowed": 3879,
      "Ġtraditional": 3880,
      "Ġaltern": 3881,
      "Ġexerc": 3882,
      "ĠAccording": 3883,
      "Ġmobile": 3884,
      "('": 3885,
      "ĠChristian": 3886,
      "izes": 3887,
      "ĠThom": 3888,
      "Ġpatient": 3889,
      "Ġactive": 3890,
      "Ġfilms": 3891,
      "Ġhop": 3892,
      "Ġfeeling": 3893,
      "ĠQue": 3894,
      "ĠDef": 3895,
      "Ġpattern": 3896,
      "itely": 3897,
      "mm": 3898,
      "ĠWashing": 3899,
      "Ġstarting": 3900,
      "iant": 3901,
      "Ġnumbers": 3902,
      "unk": 3903,
      "resp": 3904,
      "Ð°Ð": 3905,
      "45": 3906,
      "tree": 3907,
      "Ġtarget": 3908,
      "nel": 3909,
      "Ġsolutions": 3910,
      "Ġhelps": 3911,
      "Ġcateg": 3912,
      "Ġdigital": 3913,
      "Ġcreating": 3914,
      "28": 3915,
      "Ġhighest": 3916,
      "arily": 3917,
      "ester": 3918,
      "ael": 3919,
      "Ġcert": 3920,
      "Ġexactly": 3921,
      "ĠOF": 3922,
      "ĠBest": 3923,
      "ĠHistory": 3924,
      "rac": 3925,
      "70": 3926,
      "ĠCourt": 3927,
      "ĠHall": 3928,
      "Ġwal": 3929,
      "ĠWhe": 3930,
      "ĠYear": 3931,
      "Ġsymp": 3932,
      "Ġclient": 3933,
      "Ġspot": 3934,
      "Ġgone": 3935,
      "ĠThank": 3936,
      "Ġbenefits": 3937,
      "Ġremain": 3938,
      "Ġglobal": 3939,
      "net": 3940,
      "ij": 3941,
      "ipping": 3942,
      "Ġphysical": 3943,
      "ĠDec": 3944,
      "aks": 3945,
      "Ġmilitary": 3946,
      "ĠOh": 3947,
      "Ġpaid": 3948,
      "Ġvot": 3949,
      "reek": 3950,
      "Ġactivity": 3951,
      "ĠEach": 3952,
      "inter": 3953,
      "Ġul": 3954,
      "Ġ|-": 3955,
      "Ġmoving": 3956,
      "Ġframe": 3957,
      "iability": 3958,
      "Ġearn": 3959,
      "Ġfavorite": 3960,
      "Ġdemand": 3961,
      "Ġpeace": 3962,
      "ĠGood": 3963,
      "ĠPort": 3964,
      "Ġstra": 3965,
      "Ġkept": 3966,
      "ĠAssociation": 3967,
      "ws": 3968,
      "ĠCong": 3969,
      "Ġcharge": 3970,
      "aled": 3971,
      "ĠTy": 3972,
      "Ġrelationship": 3973,
      "Ġrestaur": 3974,
      "iture": 3975,
      "Ġearth": 3976,
      "Ġheat": 3977,
      "Ġgenerally": 3978,
      "ĠSund": 3979,
      "Ġconsult": 3980,
      "Ġtrain": 3981,
      "aling": 3982,
      "olf": 3983,
      "ĠWhite": 3984,
      "pite": 3985,
      "Ġindividuals": 3986,
      "Ġstructure": 3987,
      "inct": 3988,
      "ĠMem": 3989,
      "Ġstates": 3990,
      "Ġoffered": 3991,
      "Ġcopy": 3992,
      "Ġaim": 3993,
      "leg": 3994,
      "ĠMart": 3995,
      "ns": 3996,
      "Ġcapital": 3997,
      "Ġtrade": 3998,
      "tor": 3999,
      "Ġreplace": 4000,
      "Ġmeaning": 4001,
      "eds": 4002,
      "enge": 4003,
      "ĠDiv": 4004,
      "Ġdaughter": 4005,
      "Ġcove": 4006,
      "ĠInter": 4007,
      "Ġremo": 4008,
      "inner": 4009,
      "aj": 4010,
      "Ġcontains": 4011,
      "ounds": 4012,
      "ĠEngine": 4013,
      "Ġinterested": 4014,
      "ĠTechn": 4015,
      "ĠGold": 4016,
      "ĠPlay": 4017,
      "ĠAlthough": 4018,
      "Ġcertainly": 4019,
      "ĠRepublic": 4020,
      "athe": 4021,
      "ĠClub": 4022,
      "Ġbehav": 4023,
      "Ġserve": 4024,
      "Ġupdate": 4025,
      "Ġ2006": 4026,
      "ĠLou": 4027,
      "asc": 4028,
      "Ġfamilies": 4029,
      "Ġgas": 4030,
      "ĠWashington": 4031,
      "ĠDistrict": 4032,
      "reed": 4033,
      "Ġtrou": 4034,
      "Ġgar": 4035,
      "Ġgets": 4036,
      "ĠMil": 4037,
      "Ġfinished": 4038,
      "Ġfarm": 4039,
      "Ġlack": 4040,
      "Ġscript": 4041,
      "town": 4042,
      "Ġeat": 4043,
      "ware": 4044,
      "ĠDevelop": 4045,
      "Ġsites": 4046,
      "hon": 4047,
      "vis": 4048,
      "ĠGreen": 4049,
      "omb": 4050,
      "ashion": 4051,
      "Ġeffort": 4052,
      "Ġteams": 4053,
      "change": 4054,
      "Ġ190": 4055,
      "cription": 4056,
      "Ġboy": 4057,
      "Ġplanning": 4058,
      "rency": 4059,
      "Ġpleas": 4060,
      "Ġgrowing": 4061,
      "Ġassociated": 4062,
      "ACT": 4063,
      "ãģ": 4064,
      "omin": 4065,
      "ias": 4066,
      "rag": 4067,
      "NNNNNNNNNNNNNNNN": 4068,
      "Ġcomment": 4069,
      "Ġprices": 4070,
      "Ġbag": 4071,
      "Ġtransport": 4072,
      "ago": 4073,
      "Ġcolumn": 4074,
      "Ġpow": 4075,
      "Ġsteps": 4076,
      "Ġwed": 4077,
      "35": 4078,
      "tick": 4079,
      "Ġcomfor": 4080,
      "Ġopin": 4081,
      "UR": 4082,
      "ĠChampions": 4083,
      "ĠSpe": 4084,
      "Ġwait": 4085,
      "Ġmountain": 4086,
      "Ġdru": 4087,
      "Ġship": 4088,
      "ls": 4089,
      "Ġdang": 4090,
      "unction": 4091,
      "Ġgoals": 4092,
      "Ġoutput": 4093,
      "igned": 4094,
      "ellow": 4095,
      "Ġvac": 4096,
      "ĠPost": 4097,
      "ĠArch": 4098,
      "AD": 4099,
      "itiz": 4100,
      "iled": 4101,
      "Ġentry": 4102,
      "Ġincreased": 4103,
      "ĠFlor": 4104,
      "Ġdeliver": 4105,
      "icks": 4106,
      "Ġdecor": 4107,
      "Ġpresident": 4108,
      "Ġsetting": 4109,
      "ĠSuper": 4110,
      "Ġstraight": 4111,
      "Ġsuff": 4112,
      "ĠFree": 4113,
      "Ġseven": 4114,
      "fort": 4115,
      "ares": 4116,
      "Ġmiddle": 4117,
      "75": 4118,
      "Ġorganiz": 4119,
      "orrow": 4120,
      "Ġslight": 4121,
      "lation": 4122,
      "ĠSub": 4123,
      "Ġfinally": 4124,
      "ables": 4125,
      "icated": 4126,
      "Ġnovel": 4127,
      "ula": 4128,
      "ray": 4129,
      "CH": 4130,
      "ĠSing": 4131,
      "Ġhusband": 4132,
      "ustr": 4133,
      "29": 4134,
      "Ġunderstanding": 4135,
      "Ġmeasure": 4136,
      "oper": 4137,
      "ĠSam": 4138,
      "Ġlargest": 4139,
      "no": 4140,
      "ĠSum": 4141,
      "Ġweather": 4142,
      "ulty": 4143,
      "GC": 4144,
      "Ġcompon": 4145,
      "Ġesc": 4146,
      "Ġcollege": 4147,
      "::": 4148,
      "ĠEduc": 4149,
      "Ġwonderful": 4150,
      "olic": 4151,
      "Ġdemon": 4152,
      "zy": 4153,
      "Ġmaxim": 4154,
      "Ġtransfer": 4155,
      "toms": 4156,
      "roid": 4157,
      "Ġreached": 4158,
      "task": 4159,
      "Ġoverall": 4160,
      "Ġcru": 4161,
      "Ġpartners": 4162,
      "Ġjoin": 4163,
      "ĠĠĊ": 4164,
      "rial": 4165,
      "run": 4166,
      "century": 4167,
      "Ġdog": 4168,
      "ĠChristmas": 4169,
      "Ġdistance": 4170,
      "Ġapplications": 4171,
      "ĠMad": 4172,
      "Ġparticularly": 4173,
      "Ġserver": 4174,
      "Ġheavy": 4175,
      "Ġtruth": 4176,
      "Ġsample": 4177,
      "istics": 4178,
      "Ġexcept": 4179,
      "inese": 4180,
      "Ġ2000": 4181,
      "ĠCam": 4182,
      "see": 4183,
      "hi": 4184,
      "Ġinnov": 4185,
      "Ġscen": 4186,
      "imin": 4187,
      "bour": 4188,
      "Ġestablish": 4189,
      "Ġmedic": 4190,
      "Ġexhib": 4191,
      "rem": 4192,
      "ixt": 4193,
      "Ġsyn": 4194,
      "))": 4195,
      "kn": 4196,
      "Ġappeared": 4197,
      "Ġarm": 4198,
      "Ġ@": 4199,
      "tage": 4200,
      "Ġfaith": 4201,
      "Ġarchitect": 4202,
      "Ġculture": 4203,
      "Ġstream": 4204,
      "ube": 4205,
      "ĠSal": 4206,
      "Ġpictures": 4207,
      "Ġid": 4208,
      "Ġevening": 4209,
      "64": 4210,
      "ĠJer": 4211,
      "He": 4212,
      "ios": 4213,
      "ĠHy": 4214,
      "cause": 4215,
      "Ġpressure": 4216,
      "Ġfat": 4217,
      "Ġtree": 4218,
      "Ġpages": 4219,
      "Ġinterview": 4220,
      "BC": 4221,
      "Ġstorage": 4222,
      "Ġexisting": 4223,
      "Ġpet": 4224,
      "Ġafford": 4225,
      "Ġevidence": 4226,
      "date": 4227,
      "Ġcry": 4228,
      "Ġdatabase": 4229,
      "aker": 4230,
      "Ġregul": 4231,
      "Ġsuppl": 4232,
      "Ġappreci": 4233,
      "Ġelements": 4234,
      "âĢĿ.": 4235,
      "Ġir": 4236,
      "Ġburn": 4237,
      "Ġsnipp": 4238,
      "Ġloved": 4239,
      "Ġcompl": 4240,
      "more": 4241,
      "Ġeffects": 4242,
      "Ġcovered": 4243,
      "Ġder": 4244,
      "Ġstrengt": 4245,
      "Ġstrength": 4246,
      "ĠFace": 4247,
      "Ġunit": 4248,
      "Ġsupply": 4249,
      "Ġvehicle": 4250,
      "ĠVol": 4251,
      "mporary": 4252,
      "Ġsports": 4253,
      "ĠWindows": 4254,
      "ĠSou": 4255,
      "US": 4256,
      "Ġtick": 4257,
      "ero": 4258,
      "Ġclos": 4259,
      "ĠImp": 4260,
      "ffee": 4261,
      "ĠRoad": 4262,
      "Ġspend": 4263,
      "IM": 4264,
      "Ġspread": 4265,
      "Ġbackground": 4266,
      "Ġscience": 4267,
      "Ġproduce": 4268,
      "Ġregarding": 4269,
      "rite": 4270,
      "Ġmanner": 4271,
      "ĠCH": 4272,
      "Ġcandid": 4273,
      "ĠTex": 4274,
      "ii": 4275,
      "Ġhotel": 4276,
      "IG": 4277,
      "Ġfigure": 4278,
      "hreat": 4279,
      "Ġsen": 4280,
      "Ġprefer": 4281,
      "Ġhtt": 4282,
      "Ġjoined": 4283,
      "Ġoccup": 4284,
      "ew": 4285,
      "orial": 4286,
      "oute": 4287,
      "Ġmethods": 4288,
      "itar": 4289,
      "Ġprincip": 4290,
      "ĠRet": 4291,
      "Ġguide": 4292,
      "Ġadvice": 4293,
      "po": 4294,
      "threat": 4295,
      "cking": 4296,
      "semb": 4297,
      "roy": 4298,
      "rief": 4299,
      "ĠSol": 4300,
      "Ġbow": 4301,
      "la": 4302,
      "TC": 4303,
      "St": 4304,
      "Ġdistrict": 4305,
      "ania": 4306,
      "Ġdamage": 4307,
      "Ġsweet": 4308,
      "88": 4309,
      "Ġproced": 4310,
      "Ġmarried": 4311,
      "ĠTod": 4312,
      "vere": 4313,
      "Ġsnippet": 4314,
      "Ġstories": 4315,
      "Ġnormal": 4316,
      "Ġtask": 4317,
      "ivery": 4318,
      "ĠHen": 4319,
      "Ġabsolute": 4320,
      "Ġbasis": 4321,
      "ading": 4322,
      "ĠAND": 4323,
      "Ġbirths": 4324,
      "Ġrepe": 4325,
      "Ġwat": 4326,
      "Ġselected": 4327,
      "Ġbottom": 4328,
      "EL": 4329,
      "Ġnation": 4330,
      "ocal": 4331,
      "ado": 4332,
      "Ġdirection": 4333,
      "Ġlarger": 4334,
      "Ġuseful": 4335,
      "Ġfab": 4336,
      "Ġdut": 4337,
      "Ġmovement": 4338,
      "OL": 4339,
      "Ġaspect": 4340,
      "Re": 4341,
      "iny": 4342,
      "uated": 4343,
      "Ġemployees": 4344,
      "but": 4345,
      "ka": 4346,
      "Ġforms": 4347,
      "ĠAS": 4348,
      "estival": 4349,
      "Ġshot": 4350,
      "venue": 4351,
      "ĠSir": 4352,
      "Ġpray": 4353,
      "ĠSpr": 4354,
      "Ã³": 4355,
      "acity": 4356,
      "ĠBay": 4357,
      "ĠÂ£": 4358,
      "Ġdescription": 4359,
      "ocr": 4360,
      "Ġscient": 4361,
      "Ġcontinu": 4362,
      "Ġincreasing": 4363,
      "Ġphotos": 4364,
      "Ġhappen": 4365,
      "Ġnotice": 4366,
      "with": 4367,
      "Ġdoubt": 4368,
      "Ñĥ": 4369,
      "Ġ?": 4370,
      "Ġbeg": 4371,
      "atively": 4372,
      "ĠCur": 4373,
      "ograph": 4374,
      "ĠCup": 4375,
      "ĠLu": 4376,
      "Ġbasic": 4377,
      "essor": 4378,
      "itter": 4379,
      "acing": 4380,
      "fr": 4381,
      "Ġbenefit": 4382,
      "ÃŃ": 4383,
      "ĠJesus": 4384,
      "ĠVir": 4385,
      "Ġmemory": 4386,
      "ĠYes": 4387,
      "Ġcharacters": 4388,
      "Ġcivil": 4389,
      "eria": 4390,
      "65": 4391,
      "ĠTwo": 4392,
      "Ġconnection": 4393,
      "Ġopening": 4394,
      "Ġdiag": 4395,
      "lam": 4396,
      "Ġbusinesses": 4397,
      "Ġriver": 4398,
      "Ġsecret": 4399,
      "ĠTom": 4400,
      "ĠMex": 4401,
      "Ġhealthy": 4402,
      "Ġformat": 4403,
      "Ġpolice": 4404,
      "ĠChan": 4405,
      "ĠNet": 4406,
      "ĠVis": 4407,
      "rael": 4408,
      "Ġstrateg": 4409,
      "ĠCare": 4410,
      "ĠAv": 4411,
      "ĠDet": 4412,
      "Ġ2005": 4413,
      "ĠTur": 4414,
      "cher": 4415,
      "Ġremove": 4416,
      "ĠSunday": 4417,
      "Ġstudies": 4418,
      "Ġstuff": 4419,
      "ervation": 4420,
      "ĠChinese": 4421,
      "Ġresponsible": 4422,
      "stru": 4423,
      "Ġeconomic": 4424,
      "ander": 4425,
      "Ġreb": 4426,
      "33": 4427,
      "ĠMusic": 4428,
      "ĠDown": 4429,
      "ros": 4430,
      "Ġattract": 4431,
      "Ġthreat": 4432,
      "ĠFound": 4433,
      "Ġble": 4434,
      "Ġactual": 4435,
      "gu": 4436,
      "uration": 4437,
      "Ġstrugg": 4438,
      "Ġbutton": 4439,
      "Ġdoll": 4440,
      "ĠClass": 4441,
      "ĠRel": 4442,
      "Ġelement": 4443,
      "lymp": 4444,
      "vest": 4445,
      "Ġarray": 4446,
      "Ġwasn": 4447,
      "ĠSur": 4448,
      "Ġadop": 4449,
      "using": 4450,
      "Ġowners": 4451,
      "ĠAP": 4452,
      "Ã¼": 4453,
      "ĠSa": 4454,
      "pan": 4455,
      "umber": 4456,
      "Ġstatus": 4457,
      "Ġdemonstr": 4458,
      "sey": 4459,
      "ifying": 4460,
      "ĠHel": 4461,
      "Ġreflect": 4462,
      "Ġshop": 4463,
      "Ġdisease": 4464,
      "ĠLove": 4465,
      "Ġbird": 4466,
      "Ġchief": 4467,
      "Ġcount": 4468,
      "Ġtelevision": 4469,
      "rupt": 4470,
      "Ġrules": 4471,
      "ĠGermany": 4472,
      "Ġposted": 4473,
      "ĠHot": 4474,
      "ĠLiving": 4475,
      "Ġ31": 4476,
      "Ġopportunities": 4477,
      "Ġvirt": 4478,
      "ĠBuild": 4479,
      "Ġgun": 4480,
      "ĠParty": 4481,
      "Ġdisapp": 4482,
      "ĠSk": 4483,
      "Ġassess": 4484,
      "ĠBusiness": 4485,
      "down": 4486,
      "Ġpieces": 4487,
      "ship": 4488,
      "Ġrich": 4489,
      "Ġannual": 4490,
      "Ġsurv": 4491,
      "Ġearlier": 4492,
      "Ġrout": 4493,
      "ĠIsland": 4494,
      "den": 4495,
      "tail": 4496,
      "Ġdirector": 4497,
      "ĠAfrica": 4498,
      "hab": 4499,
      "Ġmechan": 4500,
      "Ġunf": 4501,
      "ĠFore": 4502,
      "Ġstress": 4503,
      "Ġimplementation": 4504,
      "Ġeval": 4505,
      "Ġreduce": 4506,
      "Ġhomes": 4507,
      "Ġcarried": 4508,
      "dule": 4509,
      "Ġinvestment": 4510,
      "raw": 4511,
      "Ġgovern": 4512,
      "ĠIts": 4513,
      "Ġelectric": 4514,
      "Ġclosed": 4515,
      "ĠIS": 4516,
      "Ġpal": 4517,
      "ĠAlex": 4518,
      "Ġhar": 4519,
      "Ġreasons": 4520,
      "riage": 4521,
      "Ġrespond": 4522,
      "Ġing": 4523,
      "Ġexperienced": 4524,
      "Ġspring": 4525,
      "Ġrail": 4526,
      "ĠAnt": 4527,
      "ĠPet": 4528,
      "Ġoffering": 4529,
      "za": 4530,
      "bon": 4531,
      "Ġincome": 4532,
      "Ġemot": 4533,
      "ronic": 4534,
      "ĠGovernment": 4535,
      "Ġprimary": 4536,
      "Ġeasier": 4537,
      "Ġadjust": 4538,
      "ĠTer": 4539,
      "ĠGrand": 4540,
      "_.": 4541,
      "ĠOlymp": 4542,
      "ette": 4543,
      "();": 4544,
      "rab": 4545,
      "ĠLife": 4546,
      "Ġbound": 4547,
      "ech": 4548,
      "adian": 4549,
      "ĠAcadem": 4550,
      "trib": 4551,
      "ano": 4552,
      "Ð»": 4553,
      "Ġperformed": 4554,
      "ses": 4555,
      "wide": 4556,
      "Ġjourney": 4557,
      "Ġprotection": 4558,
      "Ġhelped": 4559,
      "ĠSatur": 4560,
      "iques": 4561,
      "Ġchann": 4562,
      "Ġpros": 4563,
      "Ġgarden": 4564,
      "box": 4565,
      "ĠServices": 4566,
      "Ġadvance": 4567,
      "Ġnut": 4568,
      "Ġpowerful": 4569,
      "ĠEv": 4570,
      "Ġproceed": 4571,
      "eal": 4572,
      "Ġanc": 4573,
      "Ġcash": 4574,
      "ĠLake": 4575,
      "itz": 4576,
      "Ġdevices": 4577,
      "Ġfalse": 4578,
      "sych": 4579,
      "dden": 4580,
      "Ġpresented": 4581,
      "IL": 4582,
      "ician": 4583,
      "Ġseparate": 4584,
      "Ġmanufacture": 4585,
      "95": 4586,
      "kend": 4587,
      "ĠAnother": 4588,
      "Ġadvantage": 4589,
      "thr": 4590,
      "Ġshoot": 4591,
      "ĠUnder": 4592,
      "till": 4593,
      "Ġaccur": 4594,
      "Ġef": 4595,
      "Ġfold": 4596,
      "Ġappears": 4597,
      "Ġmission": 4598,
      "ategy": 4599,
      "Ġconce": 4600,
      "apter": 4601,
      "ENT": 4602,
      "craft": 4603,
      "Ġquarter": 4604,
      "forts": 4605,
      "Ġdefinitely": 4606,
      "Ġformed": 4607,
      "Ġresist": 4608,
      "ĠBen": 4609,
      "Ġadvert": 4610,
      "ĠOb": 4611,
      "Ġinstance": 4612,
      "Ġtoward": 4613,
      "Ġbes": 4614,
      "Ġsociety": 4615,
      "Ġcompared": 4616,
      "elling": 4617,
      "known": 4618,
      "Ġentered": 4619,
      "Ġmill": 4620,
      "Ġchem": 4621,
      "ĠCommun": 4622,
      "ĠUnion": 4623,
      "Ġfinish": 4624,
      "ĠFriday": 4625,
      "Ġserious": 4626,
      "ĠTexas": 4627,
      "apers": 4628,
      "Ġforeign": 4629,
      "Ġvalid": 4630,
      "Ġthank": 4631,
      "PS": 4632,
      "ona": 4633,
      "Ġsand": 4634,
      "ĠIsrael": 4635,
      "Ġepis": 4636,
      "Ġharm": 4637,
      "ato": 4638,
      "Ġmale": 4639,
      "No": 4640,
      "ĠTri": 4641,
      "Ġrates": 4642,
      "Ġbudget": 4643,
      "Ġgrant": 4644,
      "ĠInstitute": 4645,
      "met": 4646,
      "Ġexpand": 4647,
      "ĠBoard": 4648,
      "ya": 4649,
      "Ġyout": 4650,
      "Ġroof": 4651,
      "Ġgraph": 4652,
      "Ġthanks": 4653,
      "force": 4654,
      "Ġtruly": 4655,
      "Ġmentioned": 4656,
      "Ġcollabor": 4657,
      "ooth": 4658,
      "night": 4659,
      "Ġpool": 4660,
      "Ġcentral": 4661,
      "ĠAnn": 4662,
      "ĠEr": 4663,
      "Ġchair": 4664,
      "ĠST": 4665,
      "Ġcolle": 4666,
      "Ġsudden": 4667,
      "Ġbright": 4668,
      "Ġbelong": 4669,
      "ĠRoyal": 4670,
      "100": 4671,
      "Ġtemperature": 4672,
      "entle": 4673,
      "Ġactions": 4674,
      "ota": 4675,
      "Ġideal": 4676,
      "Ġwinter": 4677,
      "Ġoperations": 4678,
      "Ġdu": 4679,
      "Ġselection": 4680,
      "ĠPublic": 4681,
      "ĠSpan": 4682,
      "ĠSociety": 4683,
      "Ġinternet": 4684,
      "ĠAu": 4685,
      "Ġstone": 4686,
      "ĠTheir": 4687,
      "ker": 4688,
      "ĠSupp": 4689,
      "antic": 4690,
      "ga": 4691,
      "Ġsecure": 4692,
      "Ġincor": 4693,
      "ĠFacebook": 4694,
      "pid": 4695,
      "Ġfol": 4696,
      "ĠBecause": 4697,
      "Ġstreet": 4698,
      "Ġsmart": 4699,
      "Ġpark": 4700,
      "Ġ35": 4701,
      "Ġcaused": 4702,
      "ĠMichael": 4703,
      "Ġlearned": 4704,
      "Ġmodels": 4705,
      "ln": 4706,
      "word": 4707,
      "Ġlisted": 4708,
      "Ġefforts": 4709,
      "Ġbul": 4710,
      "tenance": 4711,
      "Ġnumerous": 4712,
      "Ġseeing": 4713,
      "Ġtrial": 4714,
      "ĠWhere": 4715,
      "rant": 4716,
      "Ġtrees": 4717,
      "cell": 4718,
      "ĠParis": 4719,
      "Ġextremely": 4720,
      "ĠWho": 4721,
      "tro": 4722,
      "Ġsongs": 4723,
      "Ġpresence": 4724,
      "Ġtill": 4725,
      "ĠCy": 4726,
      "rently": 4727,
      "take": 4728,
      "Ġmeant": 4729,
      "Ġestate": 4730,
      "Ġ==": 4731,
      "ĠHam": 4732,
      "Ġraised": 4733,
      "ĠCentral": 4734,
      "Ġherself": 4735,
      "Ġgift": 4736,
      "ĠAustralian": 4737,
      "oph": 4738,
      "Ġthr": 4739,
      "inger": 4740,
      "Ġ2004": 4741,
      "Ġcomfortable": 4742,
      "ole": 4743,
      "ĠCamp": 4744,
      "ĠAward": 4745,
      "Ġotherwise": 4746,
      "Ġoptim": 4747,
      "Ġleaving": 4748,
      "ĠProgram": 4749,
      "Ġcircum": 4750,
      "Ġsch": 4751,
      "road": 4752,
      "ulated": 4753,
      "Ġreturns": 4754,
      "ĠDu": 4755,
      "Ġadvanced": 4756,
      "what": 4757,
      "ĠSaturday": 4758,
      "32": 4759,
      "ĠResearch": 4760,
      "ĠPan": 4761,
      "Ġcleaning": 4762,
      "Ġbatter": 4763,
      "ĠAngel": 4764,
      "Ġbaby": 4765,
      "Ġmovie": 4766,
      "ĠMain": 4767,
      "ocks": 4768,
      "Ex": 4769,
      "Ġdepending": 4770,
      "Ġgall": 4771,
      "ĠThomas": 4772,
      "pts": 4773,
      "ĠFoot": 4774,
      "ĠSil": 4775,
      "Ġclasses": 4776,
      "atically": 4777,
      "Ġelection": 4778,
      "ores": 4779,
      "rees": 4780,
      "Ġartist": 4781,
      "Ġ80": 4782,
      "ĠRobert": 4783,
      "ye": 4784,
      "respond": 4785,
      "Ġice": 4786,
      "Ġdoctor": 4787,
      "Ġfish": 4788,
      "Ġparties": 4789,
      "`.": 4790,
      "Ġpayment": 4791,
      "Ġwear": 4792,
      "Ġremains": 4793,
      "rep": 4794,
      "Ġrequires": 4795,
      "ĠScott": 4796,
      "rd": 4797,
      "ĠExper": 4798,
      "Ġindeed": 4799,
      "Ġviews": 4800,
      "ĠPeter": 4801,
      "ishes": 4802,
      "Ġhappened": 4803,
      "âĶ": 4804,
      "asts": 4805,
      "OW": 4806,
      "ml": 4807,
      "Ġmur": 4808,
      "ĠEducation": 4809,
      "Ġsust": 4810,
      "ĠMake": 4811,
      "Ġruns": 4812,
      "hick": 4813,
      "icious": 4814,
      "dy": 4815,
      "Ġtraffic": 4816,
      "ĠTown": 4817,
      "Ġprepar": 4818,
      "ĠPR": 4819,
      "IV": 4820,
      "rely": 4821,
      "ĠOffice": 4822,
      "Ġmap": 4823,
      "ĠWeb": 4824,
      "Ġentertain": 4825,
      "Ġhorse": 4826,
      "Ġshape": 4827,
      "Ġcontroll": 4828,
      "Ġolder": 4829,
      "ĠFranc": 4830,
      "SE": 4831,
      "Ġguaran": 4832,
      "Ġahead": 4833,
      "ras": 4834,
      "Ġreports": 4835,
      "burg": 4836,
      "Ġlived": 4837,
      "hens": 4838,
      "Ġshared": 4839,
      "Ġstood": 4840,
      "Ġwedding": 4841,
      "ĠInternet": 4842,
      "Ġbecomes": 4843,
      "istered": 4844,
      "Ġlots": 4845,
      "Ġfashion": 4846,
      "org": 4847,
      "ĠNat": 4848,
      "ĠGra": 4849,
      "Ġlimit": 4850,
      "ĠMer": 4851,
      "Ġoccasion": 4852,
      "enses": 4853,
      "Ġprepared": 4854,
      "standing": 4855,
      "Ġleader": 4856,
      "anging": 4857,
      "ĠFind": 4858,
      "IP": 4859,
      "ĠFlorida": 4860,
      "je": 4861,
      "Ġpaint": 4862,
      "Ġacadem": 4863,
      "44": 4864,
      "Ġcup": 4865,
      "ki": 4866,
      "itness": 4867,
      "ĠWater": 4868,
      "Ġappearance": 4869,
      "Ġrecords": 4870,
      "Ġfinding": 4871,
      "Ġenem": 4872,
      "Ġsty": 4873,
      "!âĢĿ": 4874,
      "Ġdelivery": 4875,
      "Ġrepair": 4876,
      "Ġ2020": 4877,
      "What": 4878,
      "Ġbattle": 4879,
      "Ġowner": 4880,
      "ĠRob": 4881,
      "Ġinfluence": 4882,
      "Ġwants": 4883,
      "Ġbeauty": 4884,
      "ĠSun": 4885,
      "Ġyouth": 4886,
      "Ġfamous": 4887,
      "TER": 4888,
      "thick": 4889,
      "ented": 4890,
      "Ġcompetition": 4891,
      "Ġproperties": 4892,
      "lor": 4893,
      "ancing": 4894,
      "ĠWil": 4895,
      "Ġcounter": 4896,
      "Ġ$\\": 4897,
      "hrow": 4898,
      "ĠWood": 4899,
      "amin": 4900,
      "Ġcloud": 4901,
      "ĠFrank": 4902,
      "ĠLike": 4903,
      "ĠItalian": 4904,
      "eless": 4905,
      "cel": 4906,
      "Ġwine": 4907,
      "door": 4908,
      "part": 4909,
      "enture": 4910,
      "press": 4911,
      "ĠCre": 4912,
      "Ġutil": 4913,
      "Ġcards": 4914,
      "ĠRoman": 4915,
      "Ġconnected": 4916,
      "encies": 4917,
      "Ġsigned": 4918,
      "inet": 4919,
      "Ġtow": 4920,
      "ĠTor": 4921,
      "Ġspl": 4922,
      "ĠLouis": 4923,
      "hou": 4924,
      "Ġreference": 4925,
      "Ġclin": 4926,
      "icians": 4927,
      "rowd": 4928,
      "frac": 4929,
      "ĠOpen": 4930,
      "Ġisland": 4931,
      "Ġconven": 4932,
      "Ġindependent": 4933,
      "ĠEmp": 4934,
      "Ġleaves": 4935,
      "Ġefficient": 4936,
      "Ġmissing": 4937,
      ".]": 4938,
      "care": 4939,
      "ĠFinally": 4940,
      "EM": 4941,
      "Ġcoffee": 4942,
      "Ġdrop": 4943,
      "ĠCharles": 4944,
      "unte": 4945,
      "ictor": 4946,
      "ĠWed": 4947,
      "ĠVirgin": 4948,
      "throw": 4949,
      "Ġpassion": 4950,
      "Ġalign": 4951,
      "Ġparam": 4952,
      "ĠLat": 4953,
      "Ġconfig": 4954,
      "ĠWH": 4955,
      "Ġconc": 4956,
      "Ġmouth": 4957,
      "ĠToday": 4958,
      "ĠBur": 4959,
      "Ġthick": 4960,
      "Ġplants": 4961,
      "ĠCanadian": 4962,
      "isation": 4963,
      "ĠMond": 4964,
      "ĠBlue": 4965,
      "Ġseat": 4966,
      "Ġur": 4967,
      "Ġdefault": 4968,
      "ĠJapanese": 4969,
      "ĠSmith": 4970,
      "Ġfill": 4971,
      "osen": 4972,
      "Ġwhatever": 4973,
      "Ġmaybe": 4974,
      "ctors": 4975,
      "ĠPlan": 4976,
      "Ġsession": 4977,
      "aming": 4978,
      "ĠPerson": 4979,
      "Ġrule": 4980,
      "ĠHave": 4981,
      "Ġadding": 4982,
      "Ġsolid": 4983,
      "rian": 4984,
      "ĠPress": 4985,
      "usion": 4986,
      "Ġapproxim": 4987,
      "Ġquiet": 4988,
      "Ġphil": 4989,
      "ĠCommission": 4990,
      "ĠBill": 4991,
      "Ġartists": 4992,
      "Ġkilled": 4993,
      "berg": 4994,
      "Ġmicro": 4995,
      "34": 4996,
      "itors": 4997,
      "itude": 4998,
      "Ġconcept": 4999,
      "fl": 5000,
      "Le": 5001,
      "Ġhelping": 5002,
      "Ġtend": 5003,
      "ris": 5004,
      "Ġtalking": 5005,
      "ĠIns": 5006,
      "ĠMass": 5007,
      "ynam": 5008,
      "roud": 5009,
      "phone": 5010,
      "ĠCall": 5011,
      "formation": 5012,
      "}{": 5013,
      "azine": 5014,
      "Ġbecoming": 5015,
      "Ã¶": 5016,
      "dered": 5017,
      "ĠBet": 5018,
      "teen": 5019,
      "imb": 5020,
      "Ġorganizations": 5021,
      "Ġsem": 5022,
      "Ġsmaller": 5023,
      "Ġcouldn": 5024,
      "Ġconduct": 5025,
      "Ġoperation": 5026,
      "ĠAfrican": 5027,
      "ologies": 5028,
      "has": 5029,
      "à¤": 5030,
      "Ġonto": 5031,
      "Ġecho": 5032,
      "Ġbuildings": 5033,
      "Ġrow": 5034,
      "Ġnone": 5035,
      "ĠID": 5036,
      "Ġdetailed": 5037,
      "ĠiP": 5038,
      "bling": 5039,
      "ĠRock": 5040,
      "ĠIT": 5041,
      "ĠOld": 5042,
      "Ġforget": 5043,
      "Ġimpl": 5044,
      "Ġwaiting": 5045,
      "Ġshowed": 5046,
      "Ġwid": 5047,
      "ria": 5048,
      "ĠRussian": 5049,
      "Ġ2003": 5050,
      ".'": 5051,
      "Ġ90": 5052,
      "verse": 5053,
      "ĠMicro": 5054,
      "Ġcells": 5055,
      "Ġplus": 5056,
      "85": 5057,
      "Ġapplied": 5058,
      "Ġfilled": 5059,
      "Ġobl": 5060,
      "Ġunits": 5061,
      "Ġreviews": 5062,
      "Ġscene": 5063,
      "Ġvan": 5064,
      "Ġmetal": 5065,
      "Ġarrange": 5066,
      "Ġcompar": 5067,
      "ĠMuseum": 5068,
      "Ġmanage": 5069,
      "ipl": 5070,
      "Ġcritical": 5071,
      "Ġwest": 5072,
      "Ch": 5073,
      "ĠSocial": 5074,
      "ĠWestern": 5075,
      "ĠMen": 5076,
      "ĠCommit": 5077,
      "Ġign": 5078,
      "Ġnav": 5079,
      "`,": 5080,
      "Ġrob": 5081,
      "ĠTem": 5082,
      "ĠStar": 5083,
      "Ġcommunication": 5084,
      "Ġpreviously": 5085,
      "36": 5086,
      "ĠAnal": 5087,
      "cious": 5088,
      "ache": 5089,
      "list": 5090,
      "Ġforg": 5091,
      "Ġchallenge": 5092,
      "edy": 5093,
      "icing": 5094,
      "ĠNote": 5095,
      "ĠMel": 5096,
      "Ġcorrespond": 5097,
      "isher": 5098,
      "pet": 5099,
      "Ġcalls": 5100,
      "Ġstrategy": 5101,
      "Ġtrib": 5102,
      "Ġpackage": 5103,
      "ĠNav": 5104,
      "arrow": 5105,
      "Ġfurniture": 5106,
      "Ġflat": 5107,
      "ini": 5108,
      "199": 5109,
      "ĠArmy": 5110,
      "Ġintroduced": 5111,
      "iverse": 5112,
      "Con": 5113,
      "Ġ=>": 5114,
      "Ġsnow": 5115,
      "Ġminute": 5116,
      "ĠBre": 5117,
      "Ġrain": 5118,
      "Ġopinion": 5119,
      "ĠRad": 5120,
      "Ġlibrary": 5121,
      "ĠCarol": 5122,
      "Ġbrain": 5123,
      "Ġdriving": 5124,
      "tion": 5125,
      "ĠHill": 5126,
      "Ġ70": 5127,
      "yal": 5128,
      "Ġprison": 5129,
      "Ġguid": 5130,
      "coming": 5131,
      "Ġrelev": 5132,
      "Ġtermin": 5133,
      "Ġcomfort": 5134,
      "Ġkeeping": 5135,
      "ĠBoth": 5136,
      "uled": 5137,
      "Ġcitiz": 5138,
      "rapy": 5139,
      "Ġfunctions": 5140,
      "Ġfant": 5141,
      "ĠLow": 5142,
      "Ġcorner": 5143,
      "Ġexperts": 5144,
      "ushing": 5145,
      "arp": 5146,
      "Ġdiscover": 5147,
      "how": 5148,
      "ĠClick": 5149,
      "Ġteaching": 5150,
      "Ġsteel": 5151,
      "ĠChic": 5152,
      "ĠMat": 5153,
      "illa": 5154,
      "Ġauto": 5155,
      "AB": 5156,
      "ef": 5157,
      "Ġexpression": 5158,
      "Ġpul": 5159,
      "77": 5160,
      "ĠTop": 5161,
      "Ġmanager": 5162,
      "ĠSecond": 5163,
      "Ġcoast": 5164,
      "Ġexception": 5165,
      "Ġknows": 5166,
      "overy": 5167,
      "Ġcatch": 5168,
      "Ġcapacity": 5169,
      "ĠWomen": 5170,
      "gn": 5171,
      "ĠScience": 5172,
      "ĠChild": 5173,
      "mes": 5174,
      "Ġcentre": 5175,
      "ĠBank": 5176,
      "Cl": 5177,
      "plate": 5178,
      "ĠBig": 5179,
      "Ġcreative": 5180,
      "Ġjournal": 5181,
      "Ġwindows": 5182,
      "Ġgentle": 5183,
      "Ġdriver": 5184,
      "Ġiniti": 5185,
      "Ġanimals": 5186,
      "Ġloan": 5187,
      "ĠBal": 5188,
      "Ġweekend": 5189,
      "ura": 5190,
      "Ġequal": 5191,
      "Ġpair": 5192,
      "ĠPC": 5193,
      "aren": 5194,
      "ĠDry": 5195,
      "ĠHum": 5196,
      "hand": 5197,
      "actions": 5198,
      "gged": 5199,
      "ĠElect": 5200,
      "ordin": 5201,
      "Ġfriendly": 5202,
      "Ġpartner": 5203,
      "Ġrooms": 5204,
      "Ġdedicated": 5205,
      "Ġsquare": 5206,
      "Ġanti": 5207,
      "Ġarms": 5208,
      "Ġrecommended": 5209,
      "ĠBefore": 5210,
      "pm": 5211,
      "ĠProfession": 5212,
      "sembly": 5213,
      "Ġmajority": 5214,
      "Ġrecorded": 5215,
      "Ġadm": 5216,
      "xtreme": 5217,
      "ĠSpanish": 5218,
      "Ġended": 5219,
      "Ġradio": 5220,
      "55": 5221,
      "Ġfle": 5222,
      "iest": 5223,
      "ĠCath": 5224,
      "Ġmotor": 5225,
      "ĠMill": 5226,
      "ĠTime": 5227,
      "gl": 5228,
      "Ġ)": 5229,
      "Ġforest": 5230,
      "Ġshowing": 5231,
      "And": 5232,
      "idential": 5233,
      "ĠStep": 5234,
      "Ġcolour": 5235,
      "Ġtechnical": 5236,
      "char": 5237,
      "Ġanaly": 5238,
      "uries": 5239,
      "Ġdie": 5240,
      "Ġbreat": 5241,
      "state": 5242,
      "Ġbill": 5243,
      "ĠCast": 5244,
      "ĠRev": 5245,
      "Ġrat": 5246,
      "osure": 5247,
      "Ġguess": 5248,
      "ĠFam": 5249,
      "ĠLand": 5250,
      "hlet": 5251,
      "Ġ<<": 5252,
      "EC": 5253,
      "Ġsac": 5254,
      "Ġpull": 5255,
      "Ġhygiene": 5256,
      "Ġheight": 5257,
      "ATT": 5258,
      "Ġvariable": 5259,
      "Ġcommunities": 5260,
      "ĠJose": 5261,
      "OD": 5262,
      "uit": 5263,
      "fast": 5264,
      "Ġcrowd": 5265,
      "irty": 5266,
      "Ġton": 5267,
      "Ġexclus": 5268,
      "istan": 5269,
      "iament": 5270,
      "yer": 5271,
      "Ġvic": 5272,
      "ads": 5273,
      "Ġestim": 5274,
      "\";": 5275,
      "Ġrelax": 5276,
      "Ġsmooth": 5277,
      "Ġcircumst": 5278,
      "Ġconsole": 5279,
      "Ġthrow": 5280,
      "Ġremained": 5281,
      "ĠFrancis": 5282,
      "ingu": 5283,
      "37": 5284,
      "Ġtwenty": 5285,
      "Ġboat": 5286,
      "38": 5287,
      "Ġfemale": 5288,
      "ĠOffic": 5289,
      "inking": 5290,
      "Ġhaven": 5291,
      "Ġgirls": 5292,
      "Ġsoul": 5293,
      "ĠBack": 5294,
      "aught": 5295,
      "Ġbillion": 5296,
      "ĠMont": 5297,
      "icon": 5298,
      "Ġgain": 5299,
      "Ġdepart": 5300,
      "Ġfactors": 5301,
      "Ġforces": 5302,
      "ĠJour": 5303,
      "ĠLast": 5304,
      "Ġbedroom": 5305,
      "ĠSl": 5306,
      "Ġaudience": 5307,
      "Ġtro": 5308,
      "Ġexercise": 5309,
      "ushed": 5310,
      "Ġstandards": 5311,
      "Ġmaximum": 5312,
      "Ġeast": 5313,
      "cles": 5314,
      "ala": 5315,
      "Ġdiet": 5316,
      "Ġweak": 5317,
      "Ġremoved": 5318,
      "Ġquant": 5319,
      "tips": 5320,
      "Ġrapid": 5321,
      "swe": 5322,
      "asy": 5323,
      "Ġschedule": 5324,
      "equ": 5325,
      "Ġdinner": 5326,
      "idden": 5327,
      "iration": 5328,
      "icking": 5329,
      "Ġinvestig": 5330,
      "Ġsets": 5331,
      "works": 5332,
      "SS": 5333,
      "Ġunless": 5334,
      "Ġarrived": 5335,
      "ĠIll": 5336,
      "win": 5337,
      "rical": 5338,
      "Ġdeveloping": 5339,
      "da": 5340,
      "Ġhouses": 5341,
      "Ġfixed": 5342,
      "Ġcamera": 5343,
      "Ġfacilities": 5344,
      "Ġcars": 5345,
      "39": 5346,
      "Ġcancer": 5347,
      "66": 5348,
      "asp": 5349,
      "Ġegg": 5350,
      "âĶĢ": 5351,
      "bes": 5352,
      "Ġ2002": 5353,
      "Ġ45": 5354,
      "Ġdiscovered": 5355,
      "iency": 5356,
      "ĠNOT": 5357,
      "Ġcoach": 5358,
      "lements": 5359,
      "Ġmanaged": 5360,
      "Ġaware": 5361,
      "ĠTour": 5362,
      "ita": 5363,
      "gment": 5364,
      "ĠMarket": 5365,
      "inder": 5366,
      "Ġluck": 5367,
      "ĠPower": 5368,
      "Ġwriter": 5369,
      "Ġcities": 5370,
      "Ġpoet": 5371,
      "Ġaren": 5372,
      "aped": 5373,
      "Ġsight": 5374,
      "Ġobv": 5375,
      "ĠCommittee": 5376,
      "Ġultim": 5377,
      "Ġflav": 5378,
      "Ġflex": 5379,
      "IR": 5380,
      "ATE": 5381,
      "ĠManagement": 5382,
      "Ġupdated": 5383,
      "Ġmedium": 5384,
      "ĠCongress": 5385,
      "Ġiron": 5386,
      "Ġlaws": 5387,
      "ĠHand": 5388,
      "estic": 5389,
      "Ġpractices": 5390,
      "Ġthoughts": 5391,
      "ĠâĢ¢": 5392,
      "ĠNews": 5393,
      "Ġfra": 5394,
      "term": 5395,
      "Ġexperiences": 5396,
      "Ġspect": 5397,
      "Ġconsequ": 5398,
      "Ġwelcome": 5399,
      "Ġeth": 5400,
      "Ġfields": 5401,
      "Ġsharing": 5402,
      "Ġsequ": 5403,
      "Ġproperly": 5404,
      "ste": 5405,
      "iance": 5406,
      "Ġfellow": 5407,
      "icted": 5408,
      "Ġbrows": 5409,
      "Ġsister": 5410,
      "Ġprofessionals": 5411,
      "Ġmine": 5412,
      "ĠMonday": 5413,
      "ĠFR": 5414,
      "pre": 5415,
      "ommod": 5416,
      "ĠDivision": 5417,
      "Ġ2001": 5418,
      "ĠChris": 5419,
      "Ġcolors": 5420,
      "Ġedge": 5421,
      "ĠLight": 5422,
      "fit": 5423,
      "Ġglad": 5424,
      "Ġstated": 5425,
      "iliar": 5426,
      "ĠTake": 5427,
      "Ġaccompl": 5428,
      "ĠDirector": 5429,
      "Ġworkers": 5430,
      "ola": 5431,
      "oma": 5432,
      "ĠJul": 5433,
      "pective": 5434,
      "Ġlatter": 5435,
      "atre": 5436,
      "Ġcombination": 5437,
      "Ġsources": 5438,
      "Ġbalance": 5439,
      "Ġdepartment": 5440,
      "Ġimportance": 5441,
      "Ġsupported": 5442,
      "Ġdetect": 5443,
      "Ġassum": 5444,
      "Ġtesting": 5445,
      "ĠWall": 5446,
      "ĠLong": 5447,
      "ĠBrown": 5448,
      "ĠHenry": 5449,
      "Ġrub": 5450,
      "Ġincred": 5451,
      "Ġer": 5452,
      "Ġmort": 5453,
      "ĠJud": 5454,
      "igence": 5455,
      "Ġinstalled": 5456,
      "Ġbrief": 5457,
      "color": 5458,
      "west": 5459,
      "Ġshel": 5460,
      "QL": 5461,
      "ĠVe": 5462,
      "Ġjobs": 5463,
      "Ġhousehold": 5464,
      "Ġmut": 5465,
      "Ġexplaining": 5466,
      "gal": 5467,
      "Ġwaste": 5468,
      "Ġfavour": 5469,
      "ception": 5470,
      "Ġjoy": 5471,
      "Ġlaun": 5472,
      "Ðº": 5473,
      "thor": 5474,
      "paper": 5475,
      "ortunately": 5476,
      "ĠKore": 5477,
      "Ar": 5478,
      "esome": 5479,
      "eries": 5480,
      "anged": 5481,
      "Ġtechniques": 5482,
      "which": 5483,
      "MS": 5484,
      "unicip": 5485,
      "Ġrid": 5486,
      "Ġreality": 5487,
      "ĠAtl": 5488,
      "aded": 5489,
      "ĠWin": 5490,
      "Ġbeat": 5491,
      "].": 5492,
      "iences": 5493,
      "Ġtips": 5494,
      "ÑĮ": 5495,
      "Ġproud": 5496,
      "Ġeventually": 5497,
      "Ġtaste": 5498,
      "ĠDou": 5499,
      "Ġoperating": 5500,
      "reland": 5501,
      "ĠSomet": 5502,
      "ĠCus": 5503,
      "ĠLear": 5504,
      "Ġdetail": 5505,
      "ython": 5506,
      "Ġ$$": 5507,
      "Ġexplore": 5508,
      "Ġplenty": 5509,
      "Ġdesire": 5510,
      "pat": 5511,
      "Ġtrail": 5512,
      "icate": 5513,
      "Ġfounded": 5514,
      "Ġwire": 5515,
      "ustration": 5516,
      "Ġintended": 5517,
      "cean": 5518,
      "ĠMinister": 5519,
      "pth": 5520,
      "Ġbroken": 5521,
      "Ġcompre": 5522,
      "Ġdirected": 5523,
      "Ġbought": 5524,
      "Ġlabor": 5525,
      "Ġresol": 5526,
      "Ġvote": 5527,
      "ĠBas": 5528,
      "Ġremark": 5529,
      "Ġchanging": 5530,
      "Ġroute": 5531,
      "Ġbathroom": 5532,
      "Ġfee": 5533,
      "48": 5534,
      "\":": 5535,
      "Ġsides": 5536,
      "Ġtransl": 5537,
      "ket": 5538,
      "ĠBi": 5539,
      "vin": 5540,
      "Ġconference": 5541,
      "GAG": 5542,
      "Ġwouldn": 5543,
      "ression": 5544,
      "othing": 5545,
      "ĠChicago": 5546,
      "Ġhospital": 5547,
      "Ġmode": 5548,
      "Ġlose": 5549,
      "mond": 5550,
      "ĠCD": 5551,
      "ĠMaster": 5552,
      "ĠScot": 5553,
      "ulture": 5554,
      "Ġappointed": 5555,
      "truct": 5556,
      "Ġvolume": 5557,
      "Ġrelevant": 5558,
      "ĠDen": 5559,
      "oted": 5560,
      "ossible": 5561,
      "Ġlaunch": 5562,
      "Ġwinning": 5563,
      "rain": 5564,
      "essions": 5565,
      "www": 5566,
      "umin": 5567,
      "ulate": 5568,
      "ĠData": 5569,
      "Ġshopping": 5570,
      "Ġancient": 5571,
      "ĠWal": 5572,
      "print": 5573,
      "iger": 5574,
      "OP": 5575,
      "ĠĠĠĠĠĠĠĠĠĠ": 5576,
      "nament": 5577,
      "Ġminimum": 5578,
      "Ġdetermined": 5579,
      "Ġveget": 5580,
      "NA": 5581,
      "Ġhom": 5582,
      "va": 5583,
      "ĠWhether": 5584,
      "Ġresponsibility": 5585,
      "ĠFollow": 5586,
      "Ġfailed": 5587,
      "ĠEs": 5588,
      "Ġsched": 5589,
      "ĠNext": 5590,
      "Ġguests": 5591,
      "bu": 5592,
      "arsh": 5593,
      "Ġsuc": 5594,
      "bur": 5595,
      "Ġcheap": 5596,
      "Ġretail": 5597,
      "Ġvision": 5598,
      "Ġapproximately": 5599,
      "Ġfederal": 5600,
      "Ġtheme": 5601,
      "Ġ189": 5602,
      "Ġstanding": 5603,
      "ĠWork": 5604,
      "Ġcondu": 5605,
      "Ġfruit": 5606,
      "Ġaccommod": 5607,
      "Ġsenior": 5608,
      "ipes": 5609,
      "ĠVer": 5610,
      "hop": 5611,
      "bar": 5612,
      "Ġobjects": 5613,
      "ĠFire": 5614,
      "hu": 5615,
      "Ñı": 5616,
      "Ġagreement": 5617,
      "Ġlegis": 5618,
      "Pro": 5619,
      "49": 5620,
      "Ġmostly": 5621,
      "pected": 5622,
      "But": 5623,
      "ĠSqu": 5624,
      "Ġarticles": 5625,
      "Ġresidents": 5626,
      "Â®": 5627,
      "Ġfourt": 5628,
      "Ġdial": 5629,
      "Ġconver": 5630,
      "Ġfourth": 5631,
      "Ġnative": 5632,
      "thy": 5633,
      "Ġschol": 5634,
      "ĠPhoto": 5635,
      "ĠAcademy": 5636,
      "Ġforth": 5637,
      "$.": 5638,
      "miss": 5639,
      "Ġfunds": 5640,
      "Ġamb": 5641,
      "ums": 5642,
      "zen": 5643,
      "Ġarmy": 5644,
      "ĠRead": 5645,
      "ait": 5646,
      "Ġslightly": 5647,
      "Ġserving": 5648,
      "alls": 5649,
      "ML": 5650,
      "Ġvisual": 5651,
      "Ġfan": 5652,
      "soft": 5653,
      "TH": 5654,
      "kin": 5655,
      "47": 5656,
      "osite": 5657,
      "Ġthousands": 5658,
      "âĶĢâĶĢ": 5659,
      "Ġwalls": 5660,
      ",--": 5661,
      "bre": 5662,
      "Ġhappens": 5663,
      "ĠGar": 5664,
      "Ġnotes": 5665,
      "eder": 5666,
      "temporary": 5667,
      "uable": 5668,
      "active": 5669,
      "Ġclearly": 5670,
      "Ġflowers": 5671,
      "Ġsufficient": 5672,
      "Ġapart": 5673,
      "Ġwilling": 5674,
      "')": 5675,
      "Ġrise": 5676,
      "Ġgreatest": 5677,
      "ãĤ": 5678,
      "Ġsole": 5679,
      "Ġsucceed": 5680,
      "500": 5681,
      "Ġhonest": 5682,
      "claim": 5683,
      "Ġdestroy": 5684,
      "Ġassistance": 5685,
      "To": 5686,
      "ĠProject": 5687,
      "Ġscale": 5688,
      "parency": 5689,
      "],": 5690,
      "Ġseconds": 5691,
      "Ġring": 5692,
      "ikes": 5693,
      "Ġdeaths": 5694,
      "Ġflight": 5695,
      "ĠValley": 5696,
      "Ġeconomy": 5697,
      "Ġmir": 5698,
      "ĠOnly": 5699,
      "IF": 5700,
      "noon": 5701,
      "Ġshut": 5702,
      "Ġadapt": 5703,
      "Ġanimal": 5704,
      "Ġmaintenance": 5705,
      "Ġclaims": 5706,
      "ĠSpecial": 5707,
      "Ġbrown": 5708,
      "Ġprompt": 5709,
      "ĠVictor": 5710,
      "Ġ1990": 5711,
      "Ġdecide": 5712,
      "ena": 5713,
      "Ġdesigns": 5714,
      "Ġsilver": 5715,
      "Ġintell": 5716,
      "Ġcalling": 5717,
      "Ġholiday": 5718,
      "ĠDemocr": 5719,
      "Ġboys": 5720,
      "Ġdistinct": 5721,
      "Ġsymb": 5722,
      "This": 5723,
      "ĠFurther": 5724,
      "ĠDevelopment": 5725,
      "Ġaccident": 5726,
      "ĠItaly": 5727,
      "class": 5728,
      "Ġconcent": 5729,
      "Ġsounds": 5730,
      "Ġsugar": 5731,
      "gency": 5732,
      "Ġdocuments": 5733,
      "Ġalternative": 5734,
      "azon": 5735,
      "Ġstick": 5736,
      "Ġlandsc": 5737,
      "Ġvisitors": 5738,
      "ĠON": 5739,
      "ĠIreland": 5740,
      "_{": 5741,
      "utch": 5742,
      "67": 5743,
      "Ġchallenges": 5744,
      "Ġdim": 5745,
      "Ġseek": 5746,
      "Ġreligious": 5747,
      "Ġpun": 5748,
      "Ġofficer": 5749,
      "ĠJim": 5750,
      "Ġvolunte": 5751,
      "Ġbeach": 5752,
      "Ġrank": 5753,
      "Ġthousand": 5754,
      "Ġtrouble": 5755,
      "\\\\": 5756,
      "Ġpsych": 5757,
      "ĠRichard": 5758,
      "Ġofficers": 5759,
      "eper": 5760,
      "Ġupper": 5761,
      "RA": 5762,
      "Ġletters": 5763,
      "Ġcategory": 5764,
      "rier": 5765,
      "ĠTeam": 5766,
      "Ġhur": 5767,
      "^{": 5768,
      "ĠApple": 5769,
      "igan": 5770,
      "Ġlux": 5771,
      "outs": 5772,
      "oration": 5773,
      "Ġingred": 5774,
      "ĠGall": 5775,
      "ĠJew": 5776,
      "cons": 5777,
      "odies": 5778,
      "Ġentirely": 5779,
      "can": 5780,
      "âĢĿ,": 5781,
      "Ġorders": 5782,
      "Ġportion": 5783,
      "isters": 5784,
      "yr": 5785,
      "chers": 5786,
      "Ã¤": 5787,
      "Ġminor": 5788,
      "Ġquery": 5789,
      "Ġcombined": 5790,
      "Ġprocesses": 5791,
      "Ġinjury": 5792,
      "ĠEnter": 5793,
      "Ġhttp": 5794,
      "pass": 5795,
      "enth": 5796,
      "Ġthor": 5797,
      "Ġpoly": 5798,
      "ĠThus": 5799,
      "Ġrestr": 5800,
      "Ġhun": 5801,
      "CAA": 5802,
      "ĠUN": 5803,
      "Ġtheory": 5804,
      "Ġpure": 5805,
      "osop": 5806,
      "ĠUSA": 5807,
      "Ġfrequently": 5808,
      "Ġdrink": 5809,
      "iking": 5810,
      "Ġexplain": 5811,
      "Ġcore": 5812,
      "Ġrose": 5813,
      "ĠGlo": 5814,
      "Ġconsent": 5815,
      "td": 5816,
      "ĠDoes": 5817,
      "ĠOR": 5818,
      "water": 5819,
      "Ġlogic": 5820,
      "Ġtele": 5821,
      "uts": 5822,
      "ĠTim": 5823,
      "Ġflag": 5824,
      "ĠSet": 5825,
      "oughly": 5826,
      "ĠRussia": 5827,
      "Ġsector": 5828,
      "ĠBud": 5829,
      "31": 5830,
      "inding": 5831,
      "essed": 5832,
      "Ġstarts": 5833,
      "Ġdelight": 5834,
      "ivered": 5835,
      "Ġneighbor": 5836,
      "ĠOper": 5837,
      "Ġtwice": 5838,
      "Ġwalking": 5839,
      "oured": 5840,
      "Ġremaining": 5841,
      "oe": 5842,
      "ĠThrough": 5843,
      "unning": 5844,
      "ĠOl": 5845,
      "vention": 5846,
      "Ġstores": 5847,
      "ĠGames": 5848,
      "Ġbott": 5849,
      "Ġrestaurant": 5850,
      "ca": 5851,
      "Ġexcited": 5852,
      "BA": 5853,
      "89": 5854,
      "Ġpurposes": 5855,
      "hread": 5856,
      "Ġpolic": 5857,
      "Ġmeasures": 5858,
      "Ġfans": 5859,
      "astern": 5860,
      "Ġjump": 5861,
      "Ġanx": 5862,
      "Ġcontinues": 5863,
      "ĠRail": 5864,
      "ĠVirginia": 5865,
      "Ġdefined": 5866,
      "ĠLos": 5867,
      "Ġabsolutely": 5868,
      "ĠOrgan": 5869,
      "Ġplays": 5870,
      "spe": 5871,
      "Ġmulti": 5872,
      "ĠHon": 5873,
      "Ġacce": 5874,
      "Ġattrib": 5875,
      "Ġgrew": 5876,
      "ĠPenn": 5877,
      "Ġplug": 5878,
      "Ġsubsequ": 5879,
      "swered": 5880,
      "Ġteeth": 5881,
      "Ġbiggest": 5882,
      "Ġride": 5883,
      "Ġvict": 5884,
      "rene": 5885,
      "Ġsport": 5886,
      "Ġindex": 5887,
      "ĠCard": 5888,
      "ĠUsing": 5889,
      "ocket": 5890,
      "Ġinstallation": 5891,
      "ĠFoundation": 5892,
      "Ġallowing": 5893,
      "olate": 5894,
      "ĠArts": 5895,
      "ĠĠĠĠĠĠĠĠĠĠĠĠĠĠĠĠĠĠĠ": 5896,
      "rence": 5897,
      "Ġproposed": 5898,
      "Ġdecisions": 5899,
      "ĠMexico": 5900,
      "ially": 5901,
      "ev": 5902,
      "Ġnegative": 5903,
      "enced": 5904,
      "free": 5905,
      "Ġmel": 5906,
      "oles": 5907,
      "Ġinternal": 5908,
      "ĠÐ¿": 5909,
      "Ñĭ": 5910,
      "Ġputting": 5911,
      "pty": 5912,
      "Ġswim": 5913,
      "Ġhyd": 5914,
      "Ġillustr": 5915,
      "Ġsuit": 5916,
      "Ġdiss": 5917,
      "Ġappa": 5918,
      "ubl": 5919,
      "ĠAM": 5920,
      "uce": 5921,
      "Ġposts": 5922,
      "Ġholding": 5923,
      "Ġbehavior": 5924,
      "Ġbear": 5925,
      "ultural": 5926,
      "Ġsuitable": 5927,
      "ella": 5928,
      "Ġstret": 5929,
      "Ġcream": 5930,
      "En": 5931,
      "Ġanswered": 5932,
      "Ġsan": 5933,
      "Ġnine": 5934,
      "GTT": 5935,
      "Ġcaught": 5936,
      "Ġourselves": 5937,
      "Ġstre": 5938,
      "ĠInf": 5939,
      "Ġfreed": 5940,
      "ĠSand": 5941,
      "hire": 5942,
      "Ġchosen": 5943,
      "umni": 5944,
      "ĠOnline": 5945,
      "Ġgeneration": 5946,
      "Ġlad": 5947,
      "Ġcourses": 5948,
      "Ġ500": 5949,
      "Ġsitting": 5950,
      "ĠConst": 5951,
      "Ġfamiliar": 5952,
      "Ġidentify": 5953,
      "Ġliber": 5954,
      "Ġleadership": 5955,
      "ĠKingdom": 5956,
      "Ġkm": 5957,
      "Ġdrug": 5958,
      "Ġflu": 5959,
      "Ġenjoyed": 5960,
      "Ġclassic": 5961,
      "Ġpractical": 5962,
      "Ġowned": 5963,
      "fol": 5964,
      "Ġyes": 5965,
      "aked": 5966,
      "ERE": 5967,
      "Ġexchange": 5968,
      "ĠZeal": 5969,
      "anda": 5970,
      "Ġconfidence": 5971,
      "Ġprocessing": 5972,
      "Ġoriginally": 5973,
      "Ġmenu": 5974,
      "ĠLim": 5975,
      "kins": 5976,
      "Ġye": 5977,
      "Ġdynam": 5978,
      "going": 5979,
      "Ġconsid": 5980,
      "Ġencourage": 5981,
      "Ġbuying": 5982,
      "ĠâĢ¦": 5983,
      "ifts": 5984,
      "Ġstrange": 5985,
      "Ġfollows": 5986,
      "ĠHistor": 5987,
      "Ġrelationships": 5988,
      "mal": 5989,
      "Ġpossibly": 5990,
      "Ġupgr": 5991,
      "Ġnoted": 5992,
      "Ġaccepted": 5993,
      "never": 5994,
      "ĠTre": 5995,
      "Ġhelpful": 5996,
      "Ġ32": 5997,
      "agers": 5998,
      "Ġfacility": 5999,
      "Ġautomatically": 6000,
      "ban": 6001,
      "ãĥ": 6002,
      "Ġsupposed": 6003,
      ".--": 6004,
      "Ġafternoon": 6005,
      "Ġspr": 6006,
      "ĠGal": 6007,
      "ifications": 6008,
      "\");": 6009,
      "Ġcircumstances": 6010,
      "Ġmodule": 6011,
      "ĠGen": 6012,
      "Ġunivers": 6013,
      "Ġedition": 6014,
      "ĠMot": 6015,
      "azz": 6016,
      "ament": 6017,
      "Ġpersons": 6018,
      "ishop": 6019,
      "ocation": 6020,
      "Ġkill": 6021,
      "Ġdear": 6022,
      "Ġusual": 6023,
      "tun": 6024,
      "atus": 6025,
      "Ġsimpl": 6026,
      "osis": 6027,
      "Ġobtained": 6028,
      "Ġ1999": 6029,
      "icken": 6030,
      "ĠCO": 6031,
      "86": 6032,
      "friend": 6033,
      "Ġlik": 6034,
      "ĠShow": 6035,
      "Ġaid": 6036,
      "Ġforced": 6037,
      "Ġessay": 6038,
      "Ġyellow": 6039,
      "ĠAp": 6040,
      "ĠJournal": 6041,
      "TS": 6042,
      "type": 6043,
      "Ġcommission": 6044,
      "Ġsymptoms": 6045,
      "ulations": 6046,
      "cont": 6047,
      "];": 6048,
      "lets": 6049,
      "Ġtypically": 6050,
      "Ġraise": 6051,
      "Ġconflic": 6052,
      "ĠTO": 6053,
      "Yes": 6054,
      "Ġdesk": 6055,
      "Ġduty": 6056,
      "ĠColor": 6057,
      "ĠZealand": 6058,
      "Ġexpensive": 6059,
      "Ġlisten": 6060,
      "Ġhabit": 6061,
      "ĠSecret": 6062,
      "Ġinstit": 6063,
      "Ġdespite": 6064,
      "Ġrand": 6065,
      "CAG": 6066,
      "oul": 6067,
      "obile": 6068,
      "abled": 6069,
      "osit": 6070,
      "Ġfocused": 6071,
      "osal": 6072,
      "thread": 6073,
      "orter": 6074,
      "Ġretain": 6075,
      "Ġdiagn": 6076,
      "Ġauthority": 6077,
      "point": 6078,
      "Ġsustain": 6079,
      "Ġspoke": 6080,
      "Ġcot": 6081,
      "Ġcoverage": 6082,
      "ĠThurs": 6083,
      "Ġsurg": 6084,
      "wing": 6085,
      "rete": 6086,
      "Str": 6087,
      "87": 6088,
      "ĠIP": 6089,
      "Ġlaunched": 6090,
      "data": 6091,
      "Ġeditor": 6092,
      "xy": 6093,
      "Ġstudio": 6094,
      "Ġlocations": 6095,
      "ĠCatholic": 6096,
      "Ġmental": 6097,
      "Ġdance": 6098,
      "Ġperfectly": 6099,
      "Ġstopped": 6100,
      "usher": 6101,
      "Ġgoods": 6102,
      "Ġmarriage": 6103,
      "eters": 6104,
      "Ġbasket": 6105,
      "Ġselling": 6106,
      "eline": 6107,
      "ĠMur": 6108,
      "enter": 6109,
      "Ġassign": 6110,
      "Ġintr": 6111,
      "ĠRE": 6112,
      "inn": 6113,
      "Ġbusy": 6114,
      "cur": 6115,
      "igr": 6116,
      "Ġlabel": 6117,
      "ĠTest": 6118,
      "ĠDev": 6119,
      "CTT": 6120,
      "Ġteachers": 6121,
      "ora": 6122,
      "Ġvideos": 6123,
      "iner": 6124,
      "Ġelected": 6125,
      "writ": 6126,
      "nect": 6127,
      "ĠPay": 6128,
      "46": 6129,
      "IA": 6130,
      "Ġinterior": 6131,
      "Ġthy": 6132,
      "ĠHead": 6133,
      "Ġvehicles": 6134,
      "rome": 6135,
      "Ġreduced": 6136,
      "ĠSar": 6137,
      "Ġven": 6138,
      "Ġfeatured": 6139,
      "Ġcommitted": 6140,
      "Ġexamples": 6141,
      "aning": 6142,
      "Ġlovely": 6143,
      "Ġgather": 6144,
      "An": 6145,
      "Ġindustrial": 6146,
      "ĠQueen": 6147,
      "Ġneck": 6148,
      "ĠEarth": 6149,
      "Ġasking": 6150,
      "Ġpassing": 6151,
      "coh": 6152,
      "Ġfabric": 6153,
      "align": 6154,
      "Ã¨": 6155,
      ",'": 6156,
      "ym": 6157,
      "inf": 6158,
      "ĠWord": 6159,
      "ols": 6160,
      "Ġwatching": 6161,
      "ĠCommunity": 6162,
      "Ġcritic": 6163,
      "ocument": 6164,
      "alled": 6165,
      "Ġpanel": 6166,
      "oker": 6167,
      "Ġconcerns": 6168,
      "Ġ2021": 6169,
      "Ġleads": 6170,
      "ĠSummer": 6171,
      "Ġtail": 6172,
      "Ġregistered": 6173,
      "math": 6174,
      "Ġbelieved": 6175,
      "Ġguitar": 6176,
      "Ġguard": 6177,
      "Ġtea": 6178,
      "itionally": 6179,
      "Ġtopic": 6180,
      "Ġbon": 6181,
      "GAA": 6182,
      "Ġtemp": 6183,
      "Ġreplaced": 6184,
      "OC": 6185,
      "For": 6186,
      "Ġleague": 6187,
      "ĠBob": 6188,
      "Ġtables": 6189,
      "Ġattended": 6190,
      "Ġinterests": 6191,
      "AY": 6192,
      "ĠTrump": 6193,
      "ĠDri": 6194,
      "Ġuniversity": 6195,
      "ĠPop": 6196,
      "Ġordered": 6197,
      "Ġbrings": 6198,
      "Ġentr": 6199,
      "->": 6200,
      "ĠMartin": 6201,
      "If": 6202,
      "ĠCas": 6203,
      "BS": 6204,
      "ĠArab": 6205,
      "quar": 6206,
      "Ġbat": 6207,
      "string": 6208,
      "Ġfuel": 6209,
      "Ġmatters": 6210,
      "ĠOrder": 6211,
      "Ġeating": 6212,
      "Ġdoors": 6213,
      "ĠAsia": 6214,
      "Ġcomponents": 6215,
      "Ġteach": 6216,
      "01": 6217,
      "ĠCE": 6218,
      "Ġinstructions": 6219,
      "ĠEnd": 6220,
      "Ġstain": 6221,
      "includ": 6222,
      "ĠReview": 6223,
      "Ġhistorical": 6224,
      "oked": 6225,
      "tons": 6226,
      "flow": 6227,
      "ĠFood": 6228,
      "Ġepisode": 6229,
      "Ġcauses": 6230,
      "ĠPac": 6231,
      "Ġclimate": 6232,
      "Ġ1980": 6233,
      "Ġissued": 6234,
      "orry": 6235,
      "ĠLab": 6236,
      "ĠTues": 6237,
      "Ġcontext": 6238,
      "Ġsevere": 6239,
      "Ġlaid": 6240,
      "alle": 6241,
      "Ġdiam": 6242,
      "Ġdiscussion": 6243,
      "Ġdelivered": 6244,
      "ĠMountain": 6245,
      "Ġuns": 6246,
      "Ġvs": 6247,
      "ucle": 6248,
      "Ġtot": 6249,
      "Ġhonor": 6250,
      "oung": 6251,
      "def": 6252,
      "ĠThose": 6253,
      "Ġimpossible": 6254,
      "Ġextended": 6255,
      "ĠSeries": 6256,
      "Ġadministration": 6257,
      "Ġdistribution": 6258,
      "Ġcomprehens": 6259,
      "Ġcitizens": 6260,
      "CE": 6261,
      "Ġwriters": 6262,
      "Ġworry": 6263,
      "Ġperman": 6264,
      "Ġconversation": 6265,
      "eding": 6266,
      "Ġlady": 6267,
      "Ġlock": 6268,
      "Ġagreed": 6269,
      "Ġacademic": 6270,
      "Ġbelie": 6271,
      "mail": 6272,
      "isto": 6273,
      "Sc": 6274,
      "Ġscr": 6275,
      "Ġspending": 6276,
      "Ġeffic": 6277,
      "Ġcontaining": 6278,
      "ensions": 6279,
      "Ġoutdoor": 6280,
      "ĠSecurity": 6281,
      "Ġends": 6282,
      "ĠHaw": 6283,
      "Ġcultural": 6284,
      "urban": 6285,
      "ĠKeep": 6286,
      "ĠCross": 6287,
      "++": 6288,
      "Ġprivacy": 6289,
      "tore": 6290,
      "ĠInde": 6291,
      "Ġbread": 6292,
      "aven": 6293,
      "Ġhearing": 6294,
      "Ġtaught": 6295,
      "ĠBeach": 6296,
      "ĠThough": 6297,
      "rid": 6298,
      "Ġrot": 6299,
      "Ġhero": 6300,
      "Ġprofile": 6301,
      "Ġdebut": 6302,
      "Ġresear": 6303,
      "life": 6304,
      "ĠCentre": 6305,
      "Ġarrest": 6306,
      "Ġmarkets": 6307,
      "ĠJava": 6308,
      "ensus": 6309,
      "iano": 6310,
      "Ġvess": 6311,
      "stone": 6312,
      "ĠOk": 6313,
      "Ġpra": 6314,
      "pes": 6315,
      "Ġcris": 6316,
      "Ġdining": 6317,
      "oston": 6318,
      "atures": 6319,
      "host": 6320,
      "Ġmotion": 6321,
      "Ġchemical": 6322,
      "urally": 6323,
      "Ġsalt": 6324,
      "ĠIrish": 6325,
      "comm": 6326,
      "Ġaccounts": 6327,
      "ĠThursday": 6328,
      "ĠSpain": 6329,
      "Ġfro": 6330,
      "ĠCat": 6331,
      "ĠSports": 6332,
      "terest": 6333,
      "zil": 6334,
      "Ġspeaking": 6335,
      "ĠMax": 6336,
      "Is": 6337,
      "Ġspecifically": 6338,
      "Ġenvironmental": 6339,
      "ĠInt": 6340,
      "des": 6341,
      "Ġstars": 6342,
      "Ġagency": 6343,
      "ogue": 6344,
      "abilities": 6345,
      "Ġinspired": 6346,
      "Â°": 6347,
      "elled": 6348,
      "My": 6349,
      "ĠPass": 6350,
      "Ġpil": 6351,
      "Ġ%": 6352,
      "Ġspeech": 6353,
      "prise": 6354,
      "Ġhall": 6355,
      "Ġfly": 6356,
      "Ġliqu": 6357,
      "Ġplain": 6358,
      "erg": 6359,
      "Ġnarrow": 6360,
      "ĠWednes": 6361,
      "Ġpolicies": 6362,
      "ĠGreek": 6363,
      "jo": 6364,
      "Ġparent": 6365,
      "oral": 6366,
      "uations": 6367,
      "ĠÑģ": 6368,
      "Ġdefine": 6369,
      "Ġsuggested": 6370,
      "ĠGeorg": 6371,
      "ĠMP": 6372,
      "gypt": 6373,
      "ĠInformation": 6374,
      "Ġsurvey": 6375,
      "ĠAwards": 6376,
      "Ġ1998": 6377,
      "Ġgod": 6378,
      "Ġlap": 6379,
      "Ġthread": 6380,
      "you": 6381,
      "Ġremote": 6382,
      "Ġfif": 6383,
      "Ġsin": 6384,
      "Ġmatches": 6385,
      "left": 6386,
      "Ġagent": 6387,
      "ĠHa": 6388,
      "UT": 6389,
      "ĠTrust": 6390,
      "ani": 6391,
      "Ġwitness": 6392,
      "Ġdebt": 6393,
      "Ġsex": 6394,
      "ĠFootball": 6395,
      "Ġpurchased": 6396,
      "ĠReal": 6397,
      "ĠFestival": 6398,
      "ĠFamily": 6399,
      "Ġextensive": 6400,
      "Ġ36": 6401,
      "arian": 6402,
      "clusion": 6403,
      "Ġargument": 6404,
      "Ġris": 6405,
      "hone": 6406,
      "Ġcreation": 6407,
      "fection": 6408,
      "ĠChief": 6409,
      "ĠChampionship": 6410,
      "istration": 6411,
      "Ġmusical": 6412,
      "ï¿": 6413,
      "Ġweap": 6414,
      "Ġneither": 6415,
      "Ġgro": 6416,
      "ĠAndroid": 6417,
      "Ġdivision": 6418,
      "ĠColumb": 6419,
      "Ġbattery": 6420,
      "ĠFilm": 6421,
      "Ġplastic": 6422,
      "tall": 6423,
      "ĠAT": 6424,
      "ĠBoy": 6425,
      "ĠJoseph": 6426,
      "ĠÎ": 6427,
      "ulous": 6428,
      "Ġrepresented": 6429,
      "Ġbond": 6430,
      "Ġbreath": 6431,
      "poration": 6432,
      "Ġchannel": 6433,
      "erves": 6434,
      "Ġvaluable": 6435,
      "ĠEt": 6436,
      "!!!": 6437,
      "lete": 6438,
      "Ġenemy": 6439,
      "ï¿½": 6440,
      "Ġscar": 6441,
      "Ġdivid": 6442,
      "ĠSwed": 6443,
      "aff": 6444,
      "nee": 6445,
      "weight": 6446,
      "Ġfees": 6447,
      "ÐµÐ": 6448,
      "Ġapproved": 6449,
      "Ġelev": 6450,
      "Ġbringing": 6451,
      "Name": 6452,
      "Ġobserved": 6453,
      "Ġfailure": 6454,
      "Ġtun": 6455,
      "Ġfactor": 6456,
      "Ġdomain": 6457,
      "mosp": 6458,
      "Ġregularly": 6459,
      "ĠFort": 6460,
      "ĠTuesday": 6461,
      "Ġknowing": 6462,
      "Tr": 6463,
      "ĠKn": 6464,
      "ĠPriv": 6465,
      "Ġrandom": 6466,
      "race": 6467,
      "Ġlie": 6468,
      "Ġphotograph": 6469,
      "Ġcounty": 6470,
      "ensity": 6471,
      "irs": 6472,
      "ĠStart": 6473,
      "Ġear": 6474,
      "opy": 6475,
      "anger": 6476,
      "Ġinfo": 6477,
      "gon": 6478,
      "ĠDi": 6479,
      "Ġfunding": 6480,
      "Ġshipping": 6481,
      "akers": 6482,
      "ĠLittle": 6483,
      "Ġjoint": 6484,
      "ĠIndust": 6485,
      "tight": 6486,
      "Ġcarefully": 6487,
      "aser": 6488,
      "ictions": 6489,
      "Ġrecognized": 6490,
      "ems": 6491,
      "Ġdecre": 6492,
      "Ġreliable": 6493,
      "rapher": 6494,
      "ighter": 6495,
      "Ġvictim": 6496,
      "ĠMiddle": 6497,
      "Ġexciting": 6498,
      "Ġenable": 6499,
      "Ġsurrounding": 6500,
      "Ġstations": 6501,
      "avell": 6502,
      "Ġ187": 6503,
      "ĠAdv": 6504,
      "df": 6505,
      "Ġdesired": 6506,
      "ĠÐ²": 6507,
      "Ġbutter": 6508,
      "Ġprepare": 6509,
      "Ġsigns": 6510,
      "Ġwebsites": 6511,
      "Ġfreedom": 6512,
      "ĠDig": 6513,
      "PA": 6514,
      "Ġaudio": 6515,
      "while": 6516,
      "Ġfantastic": 6517,
      "ĠCharl": 6518,
      "ĠEarly": 6519,
      "ĠVan": 6520,
      "ĠStand": 6521,
      "Ġvary": 6522,
      "ĠYet": 6523,
      "Ġguest": 6524,
      "Ġunders": 6525,
      "Ġ2022": 6526,
      "orses": 6527,
      "ounted": 6528,
      "ĠEp": 6529,
      "Ġinqu": 6530,
      "Ġprove": 6531,
      "otes": 6532,
      "Ġjudge": 6533,
      "ĠCarolina": 6534,
      "Ġwww": 6535,
      "ups": 6536,
      "Ġaspects": 6537,
      "Ġawarded": 6538,
      "user": 6539,
      "ey": 6540,
      "thentic": 6541,
      "ĠCa": 6542,
      "----------------": 6543,
      "Ġsuddenly": 6544,
      "ĠMedia": 6545,
      "Ġrom": 6546,
      "Ġtreated": 6547,
      "aste": 6548,
      "Ġreplied": 6549,
      "DF": 6550,
      "Ġcasino": 6551,
      "PR": 6552,
      "Ġsomewhat": 6553,
      "Ġresolution": 6554,
      "ĠMicrosoft": 6555,
      "Ġcorporate": 6556,
      "Oh": 6557,
      "ĠTechnology": 6558,
      "69": 6559,
      "uten": 6560,
      "sq": 6561,
      "ican": 6562,
      "ĠUl": 6563,
      "Ġhousing": 6564,
      "Ġanywhere": 6565,
      "ĠWednesday": 6566,
      "div": 6567,
      "Ġpromote": 6568,
      "42": 6569,
      "Ġholds": 6570,
      "ĠBoston": 6571,
      "ĠEgypt": 6572,
      "ĠFar": 6573,
      "ĠAngeles": 6574,
      "Ġchain": 6575,
      "Ġ185": 6576,
      "tes": 6577,
      "ĠAmazon": 6578,
      "Ġbegins": 6579,
      "ĠLar": 6580,
      "bury": 6581,
      "Ġaffected": 6582,
      "ĠSaint": 6583,
      "itate": 6584,
      "Ġscientific": 6585,
      "Ġsick": 6586,
      "Ġpu": 6587,
      "bility": 6588,
      "Ġdump": 6589,
      "Pr": 6590,
      "Ġexpertise": 6591,
      "Ġcovers": 6592,
      "ĠConference": 6593,
      "tan": 6594,
      "ounded": 6595,
      "Ġreput": 6596,
      "ĠCaptain": 6597,
      "ĠLee": 6598,
      "Ġlights": 6599,
      "ilst": 6600,
      "Ġexternal": 6601,
      "Ġdollars": 6602,
      "ĠTable": 6603,
      "iana": 6604,
      "Ġsettings": 6605,
      "Ġplate": 6606,
      "Ġsuccessfully": 6607,
      "ĠLady": 6608,
      "Ġcro": 6609,
      "Ġben": 6610,
      "Ġslowly": 6611,
      "Ġque": 6612,
      "Ġwheel": 6613,
      "car": 6614,
      "Ġunable": 6615,
      "Ġconducted": 6616,
      "nce": 6617,
      "Ġrare": 6618,
      "len": 6619,
      "Ġblow": 6620,
      "bridge": 6621,
      "Ġlaugh": 6622,
      "Ġspaces": 6623,
      "ĠVill": 6624,
      "ĠIII": 6625,
      "Ġtall": 6626,
      "Ġpleasure": 6627,
      "FL": 6628,
      "greg": 6629,
      "hance": 6630,
      "ĠMedical": 6631,
      "Ġrecipe": 6632,
      "ĠNov": 6633,
      "Ġterrit": 6634,
      "ĠProduct": 6635,
      "ĠSouthern": 6636,
      "Ġkinds": 6637,
      "CA": 6638,
      "orthy": 6639,
      "Ġsam": 6640,
      "reens": 6641,
      "Ġda": 6642,
      "Ġmilk": 6643,
      "Ġspons": 6644,
      "Ġconstant": 6645,
      "Ġregister": 6646,
      "Ġgrade": 6647,
      "05": 6648,
      "thou": 6649,
      "aly": 6650,
      "inity": 6651,
      "level": 6652,
      "CAT": 6653,
      "ĠNorthern": 6654,
      "Ġbelief": 6655,
      "ĠTherefore": 6656,
      "orge": 6657,
      "Ġloop": 6658,
      "Ġvisiting": 6659,
      "Ġmixed": 6660,
      "Ġbreakfast": 6661,
      "Ġsad": 6662,
      "gers": 6663,
      "}$": 6664,
      "Ġturning": 6665,
      "Ġengineering": 6666,
      "Ġingredients": 6667,
      "ĠFred": 6668,
      "Ġimproved": 6669,
      "Ġpainting": 6670,
      "oor": 6671,
      "Ġhel": 6672,
      "ĠEll": 6673,
      "Ġencoun": 6674,
      "ĠSpring": 6675,
      "Ġproof": 6676,
      "amber": 6677,
      "resents": 6678,
      "bing": 6679,
      "Ġreceiving": 6680,
      "ĠSuch": 6681,
      "Ġgrass": 6682,
      "Ġeducational": 6683,
      "ĠAbout": 6684,
      "ĠNE": 6685,
      "Ġconclud": 6686,
      "ĠAD": 6687,
      "Us": 6688,
      "Ġvir": 6689,
      "Ġappointment": 6690,
      "ĠLeg": 6691,
      "Ġmeal": 6692,
      "Ġ1970": 6693,
      "Ġprovider": 6694,
      "ĠView": 6695,
      "tone": 6696,
      "Ġpin": 6697,
      "ĠThree": 6698,
      "Ġclothes": 6699,
      "Ġprocedure": 6700,
      "Ġtells": 6701,
      "oks": 6702,
      "ĠLibrary": 6703,
      "Ġ1996": 6704,
      "Ġdogs": 6705,
      "merce": 6706,
      "Ġmagn": 6707,
      "ĠÂ©": 6708,
      "icit": 6709,
      "Ġfaster": 6710,
      "Ġtrading": 6711,
      "Ġrent": 6712,
      "Ġbridge": 6713,
      "adow": 6714,
      "Ġtravell": 6715,
      "iat": 6716,
      "Ġdepth": 6717,
      "ĠDisc": 6718,
      "Ġgrown": 6719,
      "Ġ1997": 6720,
      "Ġdegrees": 6721,
      "Ġpush": 6722,
      "Ġpasseng": 6723,
      "ounting": 6724,
      "Ġsusp": 6725,
      "ĠBrazil": 6726,
      "tle": 6727,
      "Ġreferred": 6728,
      "ansion": 6729,
      "43": 6730,
      "Ġought": 6731,
      "Ġspok": 6732,
      "appy": 6733,
      "ĠTry": 6734,
      "Ġvictory": 6735,
      "ĠInstead": 6736,
      "Ġexcess": 6737,
      "uan": 6738,
      "gent": 6739,
      "Ġresource": 6740,
      "irmed": 6741,
      "Ġvast": 6742,
      "otic": 6743,
      "real": 6744,
      "ĠDownload": 6745,
      "ibilities": 6746,
      "Ġmeat": 6747,
      "Ġclosely": 6748,
      "ĠPlace": 6749,
      "Ġtight": 6750,
      "Ġrear": 6751,
      "Ġchampions": 6752,
      "asters": 6753,
      "Ġelimin": 6754,
      "Ġtechnique": 6755,
      "Ġsmile": 6756,
      "ĠFour": 6757,
      "Ġhat": 6758,
      "LC": 6759,
      "Ġatmosp": 6760,
      "oval": 6761,
      "Ġtests": 6762,
      "UM": 6763,
      "ĠGovern": 6764,
      "ĠConf": 6765,
      "ĠEconom": 6766,
      "ĠWild": 6767,
      "Ġthou": 6768,
      "68": 6769,
      "Ã¦": 6770,
      "ĠFair": 6771,
      "cos": 6772,
      "ĠHor": 6773,
      "Ġupdates": 6774,
      "Ġcried": 6775,
      "umes": 6776,
      "Ġattor": 6777,
      "ĠDid": 6778,
      "Ġcalculate": 6779,
      "Ġaffordable": 6780,
      "Ġborder": 6781,
      "ĠHaving": 6782,
      "Ġassociation": 6783,
      "iments": 6784,
      "Sh": 6785,
      "Ġment": 6786,
      "Ġremind": 6787,
      "ĠPrince": 6788,
      "Ġlayer": 6789,
      "Ġconcerned": 6790,
      "ĠCreate": 6791,
      "illy": 6792,
      "gor": 6793,
      "tructure": 6794,
      "Ġrepresents": 6795,
      "Ġfo": 6796,
      "ĠParl": 6797,
      "Ġdomin": 6798,
      "Ġsail": 6799,
      "ĠĠĠĠĠĠĠĠĠĠĠĠĠ": 6800,
      "Ġchat": 6801,
      "ocolate": 6802,
      "theless": 6803,
      "Ġstrategies": 6804,
      "Ġseeking": 6805,
      "ĠAnalysis": 6806,
      "Ġstands": 6807,
      "ype": 6808,
      "ĠTimes": 6809,
      "cohol": 6810,
      "ĠMedic": 6811,
      "Ġempty": 6812,
      "Ġplanned": 6813,
      "ifth": 6814,
      "Ġcomplic": 6815,
      "Ġconfirm": 6816,
      "ĠWhich": 6817,
      "Ġscored": 6818,
      "Ġcrew": 6819,
      "tur": 6820,
      "ĠIde": 6821,
      "high": 6822,
      "ĠMaking": 6823,
      "hur": 6824,
      "Ġru": 6825,
      "Ġcolon": 6826,
      "Ġneighborhood": 6827,
      "tast": 6828,
      "Ġfilter": 6829,
      "Ġsurprise": 6830,
      "Te": 6831,
      "Ġacid": 6832,
      "Ġshell": 6833,
      "rage": 6834,
      "ba": 6835,
      "iminal": 6836,
      "Ġsignal": 6837,
      "note": 6838,
      "Ġinstitutions": 6839,
      "Ġemergency": 6840,
      "iveness": 6841,
      "wa": 6842,
      "Ġofficials": 6843,
      "Ġpositions": 6844,
      "Ġidentified": 6845,
      "Ġtasks": 6846,
      "Ġkid": 6847,
      "Ġcontemporary": 6848,
      "ĠSon": 6849,
      "Ġfigures": 6850,
      "iser": 6851,
      "Ġmonthly": 6852,
      "Ġspiritual": 6853,
      "Ġreaders": 6854,
      "requ": 6855,
      "ĠJac": 6856,
      "Ġ300": 6857,
      "Ġ65": 6858,
      "ĠProte": 6859,
      "ĠHim": 6860,
      "41": 6861,
      "ĠPrem": 6862,
      "Ġdelay": 6863,
      "making": 6864,
      "Ġped": 6865,
      "inations": 6866,
      "Ġrenew": 6867,
      "Ġlies": 6868,
      "Ġphilosop": 6869,
      "Ġsurf": 6870,
      "asure": 6871,
      "ĠBegin": 6872,
      "trans": 6873,
      "Ġawesome": 6874,
      "Ġfulf": 6875,
      "ĠHotel": 6876,
      "Ġfeedback": 6877,
      "\">": 6878,
      "stra": 6879,
      "ĠWay": 6880,
      "ĠSaf": 6881,
      "ĠMid": 6882,
      "ĠAud": 6883,
      "zing": 6884,
      "Ġattached": 6885,
      "Ġwithd": 6886,
      "ĠRa": 6887,
      "As": 6888,
      "Ġsupplies": 6889,
      "Ġexecutive": 6890,
      "cknow": 6891,
      "Ġconsists": 6892,
      "Ġmainly": 6893,
      "Ġauth": 6894,
      "Ġlunch": 6895,
      "Ġalumni": 6896,
      "yan": 6897,
      "tml": 6898,
      "olly": 6899,
      "Ġexistence": 6900,
      "esterday": 6901,
      "Ġmarked": 6902,
      "icts": 6903,
      "iables": 6904,
      "rible": 6905,
      "Ġhundreds": 6906,
      "Ġnoticed": 6907,
      "Ġexplained": 6908,
      "Ġdrawing": 6909,
      "tiss": 6910,
      "Ġsky": 6911,
      "Ġengaged": 6912,
      "ĠBat": 6913,
      "Ġtechnologies": 6914,
      "Ġroot": 6915,
      "Ġsupporting": 6916,
      "ĠSea": 6917,
      "uting": 6918,
      "Ġworse": 6919,
      "Ġdrawn": 6920,
      "Ġvoc": 6921,
      "'.": 6922,
      "Ġmuseum": 6923,
      "Ġproto": 6924,
      "Ġtor": 6925,
      "Ñĩ": 6926,
      "arks": 6927,
      "tub": 6928,
      "Ġenhance": 6929,
      "Ġcharges": 6930,
      "she": 6931,
      "Ġvisited": 6932,
      "Ġinstrument": 6933,
      "lyn": 6934,
      "elines": 6935,
      "ello": 6936,
      "ideo": 6937,
      "Ġmagazine": 6938,
      "CCT": 6939,
      "itan": 6940,
      "EST": 6941,
      "ĠHope": 6942,
      "ĠAR": 6943,
      "ador": 6944,
      "Ġcutting": 6945,
      "Ġanswers": 6946,
      "Ġresulting": 6947,
      "Ġconsidering": 6948,
      "Ġ75": 6949,
      "ilet": 6950,
      "Ġtast": 6951,
      "oned": 6952,
      "Ġtrained": 6953,
      "ĠYoung": 6954,
      "Ġbranch": 6955,
      "bi": 6956,
      "ĠHuman": 6957,
      "Ġfer": 6958,
      "ĠGame": 6959,
      "Ġrevealed": 6960,
      "ĠBlo": 6961,
      "Ġemphas": 6962,
      "ĠAN": 6963,
      "Ġearned": 6964,
      "uls": 6965,
      "Ġnurs": 6966,
      "temp": 6967,
      "Ġ&&": 6968,
      "Ġju": 6969,
      "Ill": 6970,
      "ĠPacific": 6971,
      "Ġescape": 6972,
      "ĠBan": 6973,
      "Ġmoist": 6974,
      "ashed": 6975,
      "apes": 6976,
      "uous": 6977,
      "Ġdangerous": 6978,
      "achel": 6979,
      "Ġsoil": 6980,
      "mod": 6981,
      "Ġcompr": 6982,
      "ja": 6983,
      "Ġoccurred": 6984,
      "Ġshr": 6985,
      "Ġfeels": 6986,
      "Ġmessages": 6987,
      "Ġtotally": 6988,
      "ĠMS": 6989,
      "Ġcapable": 6990,
      "Ġregional": 6991,
      "mo": 6992,
      "Ġpapers": 6993,
      "Ġcouncil": 6994,
      "Ġrepeated": 6995,
      "ĠJun": 6996,
      "Ġparticipants": 6997,
      "ptions": 6998,
      "Ġdeals": 6999,
      "âĢľ": 7000,
      "ĠLy": 7001,
      "Ġaircraft": 7002,
      "Ġbirds": 7003,
      "Ġsheet": 7004,
      "ope": 7005,
      "Ġadults": 7006,
      "ĠRecords": 7007,
      "tood": 7008,
      "ĠLine": 7009,
      "Ġstructures": 7010,
      "Ġdomestic": 7011,
      "edia": 7012,
      "ĠMach": 7013,
      "hm": 7014,
      "Ġdrivers": 7015,
      "Ġ37": 7016,
      "ĠPersonal": 7017,
      "ĠPM": 7018,
      "Ġ1995": 7019,
      "Ġroutine": 7020,
      "long": 7021,
      "Ġnegot": 7022,
      "ĠFROM": 7023,
      "zer": 7024,
      "ded": 7025,
      "Ġconstantly": 7026,
      "Ġshower": 7027,
      "Ġchoices": 7028,
      "ansas": 7029,
      "Ġmotiv": 7030,
      "ĠCho": 7031,
      "Ġcomprehensive": 7032,
      "Ġopposite": 7033,
      "LECT": 7034,
      "ĠJohnson": 7035,
      "ĠCoast": 7036,
      "ĠParliament": 7037,
      "Ġadult": 7038,
      "Ġwalked": 7039,
      "Ġwet": 7040,
      "Ġannounce": 7041,
      "Ġdelicious": 7042,
      "Ġextract": 7043,
      "ĠLiber": 7044,
      "yard": 7045,
      "Ġcollected": 7046,
      "ĠBritain": 7047,
      "Ġjustice": 7048,
      "rate": 7049,
      "Ġeffectively": 7050,
      "ĠCe": 7051,
      "ĠNY": 7052,
      "Ġast": 7053,
      "ĠBow": 7054,
      "ĠBul": 7055,
      "Ġskill": 7056,
      "gging": 7057,
      "ĠDE": 7058,
      "ĠJones": 7059,
      "Ġbrands": 7060,
      "Ġturns": 7061,
      "ĠJeff": 7062,
      "raid": 7063,
      "itage": 7064,
      "etime": 7065,
      "ĠSometimes": 7066,
      "84": 7067,
      "Ġmunicip": 7068,
      "Ġacknow": 7069,
      "oga": 7070,
      "Ġsouthern": 7071,
      "Ġstd": 7072,
      "Ġguys": 7073,
      "Ġprinted": 7074,
      "onto": 7075,
      "ocated": 7076,
      "ĠOhio": 7077,
      "Com": 7078,
      "Äģ": 7079,
      "ĠTwitter": 7080,
      "page": 7081,
      "ixture": 7082,
      "ĠLog": 7083,
      "Ġinterp": 7084,
      "ĠSong": 7085,
      "Ġinvent": 7086,
      "igration": 7087,
      "There": 7088,
      "Ġretire": 7089,
      "Ġarchitecture": 7090,
      "estyle": 7091,
      "Ġlicense": 7092,
      "Ġcompetitive": 7093,
      "Ġparking": 7094,
      "Ġcontest": 7095,
      "ĠĠĠĠĠĠĠĠĠĠĠĠ": 7096,
      "Ġemployee": 7097,
      "law": 7098,
      "Line": 7099,
      "ĠEqu": 7100,
      "Ġpaying": 7101,
      "Ġbodies": 7102,
      "ĠJewish": 7103,
      "ĠJoe": 7104,
      "ĠKen": 7105,
      "omy": 7106,
      "Ġdeclared": 7107,
      "Ġserves": 7108,
      "GCT": 7109,
      "Ġguarantee": 7110,
      "Ġsoldiers": 7111,
      "ĠCorn": 7112,
      "ĠFederal": 7113,
      "file": 7114,
      "fa": 7115,
      "Ġconvenient": 7116,
      "osa": 7117,
      "Ġfoundation": 7118,
      "ĠForce": 7119,
      "Ġnorthern": 7120,
      "ĠContact": 7121,
      "ĠBon": 7122,
      "ĠLead": 7123,
      "Ġtiss": 7124,
      "Ġwarrant": 7125,
      "ĠRome": 7126,
      "rix": 7127,
      "Ġpleased": 7128,
      "gend": 7129,
      "Ġfunctionality": 7130,
      "tut": 7131,
      "Ġships": 7132,
      "Ġhighlight": 7133,
      "Ġsuffe": 7134,
      "sem": 7135,
      "Al": 7136,
      "Ġmail": 7137,
      "Ġrelatively": 7138,
      "Ġcrime": 7139,
      "Ġodd": 7140,
      "Ġelectronic": 7141,
      "Ġyield": 7142,
      "Ġunknown": 7143,
      "bered": 7144,
      "Ġdropped": 7145,
      "Ġarts": 7146,
      "Ġidentity": 7147,
      "Ġnearby": 7148,
      "ĠInvest": 7149,
      "Ġinches": 7150,
      "Ġorganized": 7151,
      "Ġvariables": 7152,
      "Ġcraft": 7153,
      "ulf": 7154,
      "Ġhandling": 7155,
      "ĠOx": 7156,
      "Ġliterature": 7157,
      "Ġì": 7158,
      "Ġrealize": 7159,
      "04": 7160,
      "Ġbrowser": 7161,
      "Ġ;": 7162,
      "Ġsaving": 7163,
      "Ġadvertising": 7164,
      "ĠDespite": 7165,
      "mary": 7166,
      "Ġshoes": 7167,
      "Ġpp": 7168,
      "OV": 7169,
      "vo": 7170,
      "ĠNever": 7171,
      "Ġtrig": 7172,
      "Ġheads": 7173,
      "ylv": 7174,
      "ÂŃ": 7175,
      "ĠFund": 7176,
      "ĠAdministr": 7177,
      "Ġinnovative": 7178,
      "ĠProfessor": 7179,
      "ĠCode": 7180,
      "lines": 7181,
      "Ġpump": 7182,
      "Ġflood": 7183,
      "83": 7184,
      "Ġsharp": 7185,
      "Ġ1994": 7186,
      "Ġappreciate": 7187,
      "Ġboost": 7188,
      "tos": 7189,
      "Ġdistingu": 7190,
      "That": 7191,
      "Ġtickets": 7192,
      "Ġ(\"": 7193,
      "Ġreligion": 7194,
      "ati": 7195,
      "Ġdefend": 7196,
      "Ġinformed": 7197,
      "Ġoblig": 7198,
      "63": 7199,
      "ĠChildren": 7200,
      "aret": 7201,
      "Ġmanufacturing": 7202,
      "Ġmerch": 7203,
      "ĠFollowing": 7204,
      "Ġrelief": 7205,
      "Ġsaved": 7206,
      "ĠAuthor": 7207,
      "gets": 7208,
      "Ġbroke": 7209,
      "ĠFig": 7210,
      "Ġdates": 7211,
      "Ġtournament": 7212,
      "ĠIran": 7213,
      "Ġstored": 7214,
      "Ġextent": 7215,
      "Ġinfras": 7216,
      "ĠWel": 7217,
      "Qu": 7218,
      "lock": 7219,
      "Ġaccurate": 7220,
      "Ġcandidate": 7221,
      "Ġdram": 7222,
      "Ġalbums": 7223,
      "ĠSP": 7224,
      "ĠAgain": 7225,
      "ĠHD": 7226,
      "Ġtroops": 7227,
      "Ġenthus": 7228,
      "Ġreplacement": 7229,
      "UL": 7230,
      "Ġinterface": 7231,
      "mt": 7232,
      "ellect": 7233,
      "Ġparticipate": 7234,
      "Ġrevenue": 7235,
      "Ġrug": 7236,
      "Ġstreets": 7237,
      "Ġversions": 7238,
      "Ġcontrast": 7239,
      "Ġbanks": 7240,
      "Ġimagine": 7241,
      "Ġapps": 7242,
      "Ġ()": 7243,
      "ĠFull": 7244,
      "ĠLtd": 7245,
      "ĠScotland": 7246,
      "Ġmal": 7247,
      "ĠMajor": 7248,
      "nic": 7249,
      "ĠRam": 7250,
      "Ġhorses": 7251,
      "Ġsubstant": 7252,
      "Ġgreatly": 7253,
      "Ġaut": 7254,
      "Ġchart": 7255,
      "ĠMembers": 7256,
      "ĠAmericans": 7257,
      "ĠCir": 7258,
      "war": 7259,
      "Ġrecon": 7260,
      "rich": 7261,
      "ĠLin": 7262,
      "Ġtemplate": 7263,
      "Ġsignificantly": 7264,
      "Ġscholars": 7265,
      "ĠProm": 7266,
      "Ġprotected": 7267,
      "Ġtut": 7268,
      "value": 7269,
      "ĠPen": 7270,
      "Ġwinner": 7271,
      "How": 7272,
      "SP": 7273,
      "ĠAC": 7274,
      "ĠKent": 7275,
      "hal": 7276,
      "Ġmanual": 7277,
      "Ġalle": 7278,
      "plays": 7279,
      "Ġrestaurants": 7280,
      "ĠKey": 7281,
      "Ġtone": 7282,
      "ĠDie": 7283,
      "lers": 7284,
      "ĠBa": 7285,
      "String": 7286,
      "Ġconvention": 7287,
      "ï¼": 7288,
      "Ġrecording": 7289,
      "ĠTurn": 7290,
      "erate": 7291,
      "SA": 7292,
      "Ð²": 7293,
      "ĠJersey": 7294,
      "ĠMic": 7295,
      "ATTT": 7296,
      "Ġcommittee": 7297,
      "Ġinvolve": 7298,
      "____": 7299,
      "Ġputs": 7300,
      "Ġlit": 7301,
      ")$": 7302,
      "ĠBed": 7303,
      "ĠAri": 7304,
      "ĠMount": 7305,
      "Ġextension": 7306,
      "Ġsuperior": 7307,
      "ĠMichigan": 7308,
      "ĠAndrew": 7309,
      "Ġprotein": 7310,
      "Ġmerely": 7311,
      "Ġtopics": 7312,
      "Ġupload": 7313,
      "Ġproviders": 7314,
      "anguages": 7315,
      "Ġ1960": 7316,
      "ĠForm": 7317,
      "ĠDub": 7318,
      "bro": 7319,
      "Ġexists": 7320,
      "Ġfighting": 7321,
      "elve": 7322,
      "Ġusage": 7323,
      "Ġstorm": 7324,
      "ĠHard": 7325,
      "ĠCra": 7326,
      "ĠExec": 7327,
      "Ġforgot": 7328,
      "Ġprinciples": 7329,
      "ĠSpace": 7330,
      "Ġstudied": 7331,
      "Ġconsumer": 7332,
      "certain": 7333,
      "Ġcomponent": 7334,
      "DA": 7335,
      "ĠSanta": 7336,
      "Ġeld": 7337,
      "Ġfeaturing": 7338,
      "minent": 7339,
      "Ġrein": 7340,
      "orders": 7341,
      "Ġcandidates": 7342,
      "Ġrecovery": 7343,
      "ĠNetwork": 7344,
      "Ġbet": 7345,
      "ĠCost": 7346,
      "ĠWorks": 7347,
      "ĠFather": 7348,
      "Ġimmediate": 7349,
      "Un": 7350,
      "FA": 7351,
      "endar": 7352,
      "MA": 7353,
      "ĠPolice": 7354,
      "gcolor": 7355,
      "agram": 7356,
      "ĠSign": 7357,
      "Ġimprovement": 7358,
      "areness": 7359,
      "Ġmedicine": 7360,
      "ĠGlobal": 7361,
      "liance": 7362,
      "ĠMaybe": 7363,
      "Ġsplit": 7364,
      "Ġcoordin": 7365,
      "Ġconcern": 7366,
      "Ġdecades": 7367,
      "Ġcharged": 7368,
      "ĠFrancisco": 7369,
      "Ġfacts": 7370,
      "62": 7371,
      "Ġtelling": 7372,
      "ylvania": 7373,
      "vy": 7374,
      "Ġreform": 7375,
      "82": 7376,
      "Ġdeck": 7377,
      "ĠVery": 7378,
      "Ġ1992": 7379,
      "Ġsurgery": 7380,
      "Ġefficiency": 7381,
      "ĠPak": 7382,
      "Ġsolve": 7383,
      "ĠMcC": 7384,
      "Ġcooking": 7385,
      "Ġshares": 7386,
      "igible": 7387,
      "Ġyounger": 7388,
      "Ġyards": 7389,
      "gage": 7390,
      "Ġcompos": 7391,
      "Ġauthorities": 7392,
      "ampion": 7393,
      "Ġinner": 7394,
      "Data": 7395,
      "titude": 7396,
      "ĠEliz": 7397,
      "ĠHi": 7398,
      "ĠĠĠĠĠĠĠĠĊ": 7399,
      "Illustration": 7400,
      "Do": 7401,
      "Americ": 7402,
      "Ġfairly": 7403,
      "ds": 7404,
      "pert": 7405,
      "Ġreasonable": 7406,
      "Ġemployment": 7407,
      "Ġmoments": 7408,
      "under": 7409,
      "ĠWilliams": 7410,
      "ĠEdward": 7411,
      "ĠMike": 7412,
      "Ġlighting": 7413,
      "Don": 7414,
      "Ġincorpor": 7415,
      "ĠField": 7416,
      "ĠSQL": 7417,
      "Ġsupports": 7418,
      "emp": 7419,
      "Ġalongside": 7420,
      "nergy": 7421,
      "Ġreturning": 7422,
      "ĠCro": 7423,
      "Ġexpressed": 7424,
      "Ġease": 7425,
      "Ġicon": 7426,
      "Ġagric": 7427,
      "View": 7428,
      "Ã¢": 7429,
      "Ġunion": 7430,
      "ĠIncor": 7431,
      "Ġkick": 7432,
      "Ġtur": 7433,
      "Ġqualified": 7434,
      "ila": 7435,
      "Ġseasons": 7436,
      "ĠÐ½": 7437,
      "81": 7438,
      "Ġafraid": 7439,
      "Ġspecified": 7440,
      "Ġmonit": 7441,
      "anges": 7442,
      "ching": 7443,
      "ĠDar": 7444,
      "Ġdental": 7445,
      "Ġassets": 7446,
      "Ġwarning": 7447,
      "Ġsuppose": 7448,
      "Ġmachines": 7449,
      "Ġtypical": 7450,
      "amm": 7451,
      "ĠJos": 7452,
      "Ġpremium": 7453,
      "Ġvisible": 7454,
      "etic": 7455,
      "ĠHospital": 7456,
      "ocking": 7457,
      "ua": 7458,
      "och": 7459,
      "Ġpicked": 7460,
      "Ġstatic": 7461,
      "Ġleather": 7462,
      "Ġcommonly": 7463,
      "Ġhidden": 7464,
      "UN": 7465,
      "Ġphase": 7466,
      "rum": 7467,
      "Ġtherapy": 7468,
      "ensed": 7469,
      "Ġvin": 7470,
      "61": 7471,
      "ishment": 7472,
      "iors": 7473,
      "Ġpatterns": 7474,
      "Ġsubmit": 7475,
      "morrow": 7476,
      "ospit": 7477,
      "Ġpursu": 7478,
      "Be": 7479,
      "aze": 7480,
      "ĠHoly": 7481,
      "ĠCab": 7482,
      "inem": 7483,
      "Ġchap": 7484,
      "Ġwash": 7485,
      "Ġrelation": 7486,
      "ulpt": 7487,
      "Ġadventure": 7488,
      "Ġauthentic": 7489,
      "Ġchapter": 7490,
      "Ġreward": 7491,
      "Ġpromise": 7492,
      "Ġgate": 7493,
      "ĠCalcul": 7494,
      "Ġvit": 7495,
      "Ġfoods": 7496,
      "Ġdating": 7497,
      "ĠMos": 7498,
      "Ġemployed": 7499,
      "Ġconsumers": 7500,
      "ĠNight": 7501,
      "ĠString": 7502,
      "59": 7503,
      "Ġcapture": 7504,
      "adel": 7505,
      "ĠProdu": 7506,
      "abeth": 7507,
      "har": 7508,
      "wan": 7509,
      "Ġcycle": 7510,
      "Ġexplan": 7511,
      "ĠIslam": 7512,
      "ockey": 7513,
      "ayer": 7514,
      "Ġdust": 7515,
      "ĠJon": 7516,
      "ĠRun": 7517,
      "theast": 7518,
      "Well": 7519,
      "ĠQual": 7520,
      "Ġdisplayed": 7521,
      "RL": 7522,
      "ĠRub": 7523,
      "Ġsizes": 7524,
      "Ġgranted": 7525,
      "burgh": 7526,
      "lected": 7527,
      "Ġperforming": 7528,
      "Ġsir": 7529,
      "Ġgained": 7530,
      "related": 7531,
      "ĠDaniel": 7532,
      "ione": 7533,
      "amps": 7534,
      "ĠMah": 7535,
      "ĠDutch": 7536,
      "AAAA": 7537,
      "iece": 7538,
      "Ġachieved": 7539,
      "struction": 7540,
      "Ġprofit": 7541,
      "ĠBase": 7542,
      "ĠAccess": 7543,
      "Ġresistance": 7544,
      "Ġinfrastructure": 7545,
      "dis": 7546,
      "elly": 7547,
      "ĠGeorgia": 7548,
      "ĠYOU": 7549,
      "Ġdish": 7550,
      "Ġdisappoint": 7551,
      "Ġclinical": 7552,
      "ĠType": 7553,
      "Ġkeeps": 7554,
      "Ġwestern": 7555,
      "Ġ33": 7556,
      "ĠLatin": 7557,
      "Ġseats": 7558,
      "Ġages": 7559,
      "Ġgenerate": 7560,
      "Ġbgcolor": 7561,
      "Ġaffili": 7562,
      "Ġnucle": 7563,
      "GB": 7564,
      "ĠCarl": 7565,
      "Ġlandscape": 7566,
      "Ġinstitution": 7567,
      "oman": 7568,
      "aints": 7569,
      "Ġeleg": 7570,
      "ĠPhilipp": 7571,
      "Ġacquired": 7572,
      "ĠJackson": 7573,
      "Ġwearing": 7574,
      "Ġinstant": 7575,
      "Ġperspective": 7576,
      "Ġ1993": 7577,
      "Ġcontained": 7578,
      "Ġscheduled": 7579,
      "Ġpresentation": 7580,
      "ĠSho": 7581,
      "Ġconfirmed": 7582,
      "Ġlosing": 7583,
      "ĠChair": 7584,
      "Ġreliability": 7585,
      "Ġsearching": 7586,
      "ĠOrig": 7587,
      "thetic": 7588,
      "just": 7589,
      "79": 7590,
      "fin": 7591,
      "Ġsolar": 7592,
      "Ġtracks": 7593,
      "chester": 7594,
      "Ġathlet": 7595,
      "uing": 7596,
      "Ġcheese": 7597,
      "Ġatmosphere": 7598,
      "adium": 7599,
      "ĠLive": 7600,
      "ressed": 7601,
      "Ġabsor": 7602,
      "Ġdestination": 7603,
      "ĠMir": 7604,
      "cers": 7605,
      "Ġwidely": 7606,
      "Ġconstit": 7607,
      "ĠUk": 7608,
      "ĠRoom": 7609,
      "ĠAsian": 7610,
      "plete": 7611,
      "pons": 7612,
      "Ġworldwide": 7613,
      "ĠHun": 7614,
      "produ": 7615,
      "Ġdefense": 7616,
      "Ġsessions": 7617,
      "Ġreputation": 7618,
      "Ġillness": 7619,
      "ĠPack": 7620,
      "Ġstruck": 7621,
      "Ġcloser": 7622,
      "ĠCert": 7623,
      "Ġmile": 7624,
      "De": 7625,
      "Ġwealth": 7626,
      "uction": 7627,
      "ĠPenns": 7628,
      "ĠFOR": 7629,
      "Ġconvert": 7630,
      "Ġ39": 7631,
      "Ġorganic": 7632,
      "Ġmeetings": 7633,
      "Ġclothing": 7634,
      "Ġgrace": 7635,
      "Ġterror": 7636,
      "ĠVen": 7637,
      "ĠiPhone": 7638,
      "ĠSus": 7639,
      "Ġacts": 7640,
      "Ġengage": 7641,
      "Ġloves": 7642,
      "Ġvoid": 7643,
      "ĠAsh": 7644,
      "ĠRose": 7645,
      "Ġregions": 7646,
      "Ġengagement": 7647,
      "Ġcaptain": 7648,
      "Ġfeelings": 7649,
      "Ġsubjects": 7650,
      "Ġhistoric": 7651,
      "ĠPubl": 7652,
      "Ġlake": 7653,
      "ĠProper": 7654,
      "tum": 7655,
      "Ġpill": 7656,
      "Ġstyles": 7657,
      "Ġformal": 7658,
      "Ġadvis": 7659,
      "Ġunlike": 7660,
      "mn": 7661,
      "Ġinvited": 7662,
      "Ġcarrying": 7663,
      "Ġprocedures": 7664,
      "Res": 7665,
      "ĠShould": 7666,
      "Ġprecise": 7667,
      "Ġgear": 7668,
      "NNNNNNNNNNNNNNNNNNNNNNNNNNNNNNNN": 7669,
      "ĠPerhaps": 7670,
      "Ġpowers": 7671,
      "ĠStill": 7672,
      "Ġblind": 7673,
      "Ġlegs": 7674,
      "ĠDun": 7675,
      "ificate": 7676,
      "rick": 7677,
      "Ġbigger": 7678,
      "ĠInn": 7679,
      "Ġentit": 7680,
      "ĠMu": 7681,
      "grad": 7682,
      "Ġmissed": 7683,
      "ĠEngineer": 7684,
      "Ġcommitment": 7685,
      "Ġalcohol": 7686,
      "Ġprimarily": 7687,
      "Ġevil": 7688,
      "orted": 7689,
      "ĠWales": 7690,
      "ĠCHAP": 7691,
      "Ġentrance": 7692,
      "Ġpermanent": 7693,
      "ĠSecretary": 7694,
      "rect": 7695,
      "Ġinspiration": 7696,
      "Ġprotest": 7697,
      "Ġdivided": 7698,
      "Ġinhab": 7699,
      "Ġequival": 7700,
      "Ġrespectively": 7701,
      "%.": 7702,
      "ĠCommon": 7703,
      "quest": 7704,
      "Ġproved": 7705,
      "Ġprincipal": 7706,
      "ĠEastern": 7707,
      "cus": 7708,
      "Ġinvestigation": 7709,
      "ĠBang": 7710,
      "ĠCivil": 7711,
      "Ġconcerning": 7712,
      "ĠRay": 7713,
      "Ġrental": 7714,
      "Ġbasketball": 7715,
      "ĠApplic": 7716,
      "Ġbrill": 7717,
      "Ġindicating": 7718,
      "Ġax": 7719,
      "Ġappeal": 7720,
      "ĠStan": 7721,
      "ĠCreat": 7722,
      "All": 7723,
      "ĠPolit": 7724,
      "Ġunderstood": 7725,
      "Ġunw": 7726,
      "Ġdeploy": 7727,
      "09": 7728,
      "Ġsought": 7729,
      "ĠSS": 7730,
      "Ġsinger": 7731,
      "Ġcarbon": 7732,
      "ardens": 7733,
      "Ġsuffered": 7734,
      "Ġ1991": 7735,
      "ĠControl": 7736,
      "Ġ48": 7737,
      "Ġnose": 7738,
      "02": 7739,
      "Ġagents": 7740,
      "ĠPlus": 7741,
      "Ġbirthday": 7742,
      "Ġobvious": 7743,
      "($": 7744,
      "ĠPennsylvania": 7745,
      "Ġassigned": 7746,
      "bits": 7747,
      "Ġapartment": 7748,
      "Ġpossibility": 7749,
      "Ġwhenever": 7750,
      "Ġurban": 7751,
      "Ġentertainment": 7752,
      "Ġnoise": 7753,
      "ĠCond": 7754,
      "ĠBrand": 7755,
      "Ĥ¬": 7756,
      "cked": 7757,
      "Ġoperate": 7758,
      "Ġestimated": 7759,
      "Ġadopted": 7760,
      "Ġagencies": 7761,
      "Ġsurprised": 7762,
      "bly": 7763,
      "Ġreader": 7764,
      "Ġpurs": 7765,
      "ĠWeek": 7766,
      "fts": 7767,
      "Ġvent": 7768,
      "iar": 7769,
      "Ġcoal": 7770,
      "Ġclaimed": 7771,
      "Ġaside": 7772,
      "gorith": 7773,
      "mented": 7774,
      "apos": 7775,
      "from": 7776,
      "Ġpit": 7777,
      "Ġheaven": 7778,
      "agues": 7779,
      "iations": 7780,
      "imp": 7781,
      "Ġoffices": 7782,
      "Pl": 7783,
      "Ã§": 7784,
      "ĠSup": 7785,
      "Ġsituations": 7786,
      "Ġregistration": 7787,
      "Ġcompens": 7788,
      "Ġattacks": 7789,
      "Ġincident": 7790,
      "cal": 7791,
      "TA": 7792,
      "07": 7793,
      "Ġaband": 7794,
      "ĠAmong": 7795,
      "ko": 7796,
      "ĠManager": 7797,
      "Ġplot": 7798,
      "Ġviolence": 7799,
      "Ġincredible": 7800,
      "Ġfacing": 7801,
      "Ġdur": 7802,
      "Ġcreates": 7803,
      "inois": 7804,
      "bel": 7805,
      "Ġscan": 7806,
      "Ġprogramme": 7807,
      "Ġfacil": 7808,
      "Ġbare": 7809,
      "tough": 7810,
      "Ġresidential": 7811,
      "izer": 7812,
      "Ġobserv": 7813,
      "Ġauthors": 7814,
      "Ġstruggle": 7815,
      "Ġrating": 7816,
      "rell": 7817,
      "Ø§": 7818,
      "Ġjack": 7819,
      "Ġliquid": 7820,
      "bra": 7821,
      "Ġantic": 7822,
      "lar": 7823,
      "Ġluxury": 7824,
      "Ġaccessible": 7825,
      "Ġmountains": 7826,
      "iden": 7827,
      "Ġhire": 7828,
      "ĠSenate": 7829,
      "tank": 7830,
      "ĠCEO": 7831,
      "Ġconsideration": 7832,
      "Ġconcrete": 7833,
      "Ġindu": 7834,
      "Ġairport": 7835,
      "Ġdanger": 7836,
      "Ġdriven": 7837,
      "ĠSav": 7838,
      "Ġconscious": 7839,
      "ĠBible": 7840,
      "Ġvirtual": 7841,
      "onym": 7842,
      "Ġdifferences": 7843,
      "Ġphen": 7844,
      "Ġconflict": 7845,
      "ĠBall": 7846,
      "lose": 7847,
      "vas": 7848,
      "Ġwaters": 7849,
      "Ġsuffering": 7850,
      "Ġdefinition": 7851,
      "Ġbike": 7852,
      "Ġfavourite": 7853,
      "Ġscheme": 7854,
      "Ġhardware": 7855,
      "Ġnewly": 7856,
      "Ġunex": 7857,
      "Ġadvoc": 7858,
      "ĠTax": 7859,
      "ĠRadio": 7860,
      "Ġminister": 7861,
      "ĠPH": 7862,
      "umps": 7863,
      "Ġwhilst": 7864,
      "Ġmassive": 7865,
      "tip": 7866,
      "Ġfishing": 7867,
      "Ġindicate": 7868,
      "Id": 7869,
      "Ġdifficulty": 7870,
      "yes": 7871,
      "ĠStudents": 7872,
      "03": 7873,
      "Ġexclusive": 7874,
      "ucks": 7875,
      "pon": 7876,
      "ira": 7877,
      ".âĢĻ": 7878,
      "ĠExtreme": 7879,
      "ĠSpirit": 7880,
      "Ġintention": 7881,
      "stream": 7882,
      "Ġchicken": 7883,
      "ĠUr": 7884,
      "Ġawards": 7885,
      "cling": 7886,
      "shire": 7887,
      "eller": 7888,
      "Ġcrown": 7889,
      "Ġhang": 7890,
      "ĠPor": 7891,
      "Ġcooper": 7892,
      "ÐµÐ½": 7893,
      "sm": 7894,
      "Ġtransportation": 7895,
      "ĠGirl": 7896,
      "Ġticket": 7897,
      "Ġrelative": 7898,
      "Ġ(_": 7899,
      "ĠWrit": 7900,
      "irms": 7901,
      "Ġprin": 7902,
      "tiny": 7903,
      "Ġbowl": 7904,
      "Ġtrend": 7905,
      "Ġcable": 7906,
      "Ġcomposed": 7907,
      "ATION": 7908,
      "Ġrig": 7909,
      "iate": 7910,
      "Ġtough": 7911,
      "claimed": 7912,
      "sub": 7913,
      "âĢĻ.": 7914,
      "rer": 7915,
      "Ġgam": 7916,
      "ĠBes": 7917,
      "}\\": 7918,
      "themat": 7919,
      "Ġintellect": 7920,
      "working": 7921,
      "Ġthee": 7922,
      "Ġhung": 7923,
      "fall": 7924,
      "57": 7925,
      "Ġprofessor": 7926,
      "Ġdescribe": 7927,
      "Ġexperiment": 7928,
      "away": 7929,
      "ĠPhys": 7930,
      "ucky": 7931,
      "Ġaccompan": 7932,
      "ĠTenn": 7933,
      "ĠAdditionally": 7934,
      "cover": 7935,
      "orable": 7936,
      "Ġcabin": 7937,
      "Ġprogramming": 7938,
      "Ġdiscount": 7939,
      "ĠColon": 7940,
      "['": 7941,
      "Ġbreast": 7942,
      "VD": 7943,
      "Val": 7944,
      "hem": 7945,
      "iform": 7946,
      "EX": 7947,
      "aka": 7948,
      "Ġzero": 7949,
      "gas": 7950,
      "anes": 7951,
      "Ġcampus": 7952,
      "onic": 7953,
      "Ġhardly": 7954,
      "ĠLook": 7955,
      "Ġchose": 7956,
      "Ġchocolate": 7957,
      "Ġerrors": 7958,
      "Ġlargely": 7959,
      "EE": 7960,
      "ĠCA": 7961,
      "Ġcompare": 7962,
      "Ġdesce": 7963,
      "Ġstrict": 7964,
      "Ġinhe": 7965,
      "Ġfalls": 7966,
      "una": 7967,
      "ifies": 7968,
      "aya": 7969,
      "ĠExpl": 7970,
      "ĠNavy": 7971,
      "Ġexpenses": 7972,
      "ĠSC": 7973,
      "isted": 7974,
      "Ġsauce": 7975,
      "ĠCHAPTER": 7976,
      "ĠConsole": 7977,
      "ĠId": 7978,
      "Ġremoval": 7979,
      "Ġpayments": 7980,
      "center": 7981,
      "Ġ34": 7982,
      "Ġadmin": 7983,
      "AND": 7984,
      "Ġassume": 7985,
      "Ġphr": 7986,
      "ĠMult": 7987,
      "Ġnaturally": 7988,
      "ĠRight": 7989,
      "Ġdrugs": 7990,
      "FC": 7991,
      "Ġyesterday": 7992,
      "odge": 7993,
      "ĠSmall": 7994,
      "Ġdepends": 7995,
      "Ġvital": 7996,
      "ped": 7997,
      "ĠLuc": 7998,
      "trop": 7999,
      "Ġaccord": 8000,
      "Ġliked": 8001,
      "Ġzone": 8002,
      "hony": 8003,
      "ĠOS": 8004,
      "Ġveter": 8005,
      "ĠUnf": 8006,
      "Ġtradition": 8007,
      "ĠAssembly": 8008,
      "hro": 8009,
      "Ġrepresenting": 8010,
      "Ġtrick": 8011,
      "ĠEnergy": 8012,
      "Ġguy": 8013,
      "Se": 8014,
      "Ġlanguages": 8015,
      "ĠEU": 8016,
      "ĠSher": 8017,
      "ĠDa": 8018,
      "Ġlinked": 8019,
      "ĠStation": 8020,
      "berry": 8021,
      "Ġnarr": 8022,
      "ĠIllinois": 8023,
      "eling": 8024,
      "icket": 8025,
      "hirty": 8026,
      "Ġtruck": 8027,
      "Ġlect": 8028,
      "etch": 8029,
      "Ġpolitics": 8030,
      "ĠTay": 8031,
      "On": 8032,
      "Ġassessment": 8033,
      "oster": 8034,
      "Ġdiscussed": 8035,
      "Ġfaculty": 8036,
      "ĠâĢĻ": 8037,
      "Ġintelligence": 8038,
      "Ġsteam": 8039,
      "uster": 8040,
      "Ġafterwards": 8041,
      "Ġdrama": 8042,
      "Ġsacr": 8043,
      "comes": 8044,
      "ĠPerform": 8045,
      "Ġvo": 8046,
      "List": 8047,
      "Ġmac": 8048,
      "Ġpermission": 8049,
      "Ġcriminal": 8050,
      "Ġflour": 8051,
      "ela": 8052,
      "Ġcake": 8053,
      "ĠKnow": 8054,
      "ĠPortug": 8055,
      "ĠOt": 8056,
      "ĠOlympics": 8057,
      "cts": 8058,
      "Ġpossess": 8059,
      "ĠPakistan": 8060,
      "yers": 8061,
      "iang": 8062,
      "Ġbenefic": 8063,
      "uer": 8064,
      "aping": 8065,
      ".[": 8066,
      "alog": 8067,
      "Ġworst": 8068,
      "Ġimper": 8069,
      "ĠConsider": 8070,
      "ĠCON": 8071,
      "Ġtiny": 8072,
      "Ġrequirement": 8073,
      "Ġcomparison": 8074,
      "ingly": 8075,
      "Ġrising": 8076,
      "Ġguidance": 8077,
      "Ġdraft": 8078,
      "igen": 8079,
      "stery": 8080,
      "Ġretired": 8081,
      "Ġsending": 8082,
      "Ġtag": 8083,
      "Ġgenerated": 8084,
      "Ġacting": 8085,
      "Ġmedal": 8086,
      "ĠWould": 8087,
      "Ġarrival": 8088,
      "ĠBeaut": 8089,
      "ĠOlympic": 8090,
      "Ġ55": 8091,
      "ication": 8092,
      "Ġinitially": 8093,
      "Ġfestival": 8094,
      "uine": 8095,
      "Ġsevent": 8096,
      "ESS": 8097,
      "ĠFa": 8098,
      "Ġmini": 8099,
      "Ġhill": 8100,
      "Ġregulations": 8101,
      "AV": 8102,
      "Ġroles": 8103,
      "Ġ</": 8104,
      "Ġwise": 8105,
      "Ġfinds": 8106,
      "Ġsomewhere": 8107,
      "Ġenhan": 8108,
      "input": 8109,
      "viet": 8110,
      "Ġ..": 8111,
      "RI": 8112,
      "Ġactor": 8113,
      "thirty": 8114,
      "Ġwooden": 8115,
      "Ġblank": 8116,
      "ĠRod": 8117,
      "Ġtransition": 8118,
      "Ġintegrated": 8119,
      "Ġstim": 8120,
      "ĠEst": 8121,
      "style": 8122,
      "Ġpregn": 8123,
      "ĠIncorporate": 8124,
      "ĠAPI": 8125,
      "Ġoccurs": 8126,
      "ĠSearch": 8127,
      "Ġtub": 8128,
      "Ġintim": 8129,
      "ĠĠĠĠĠĠĠĠĠĠĠĠĠĠ": 8130,
      "cue": 8131,
      "AGT": 8132,
      "Ġdirectory": 8133,
      "ĠPage": 8134,
      "Ġ150": 8135,
      "rated": 8136,
      "Ġseed": 8137,
      "Ġpoll": 8138,
      "ĠGree": 8139,
      "haust": 8140,
      "Ġdiverse": 8141,
      "Ġincreases": 8142,
      "ĠMatt": 8143,
      "Ã³n": 8144,
      "78": 8145,
      "ĠEmpire": 8146,
      "âĦ": 8147,
      "ĠTal": 8148,
      "Ġnormally": 8149,
      "achus": 8150,
      "ĠJean": 8151,
      "Ġtested": 8152,
      "pack": 8153,
      "ĠBY": 8154,
      "Ġorganis": 8155,
      "Ġpersonally": 8156,
      "Ġintroduction": 8157,
      "Ġproport": 8158,
      "Ġgifts": 8159,
      "Ġultimately": 8160,
      "Ġpartnership": 8161,
      "Ġcausing": 8162,
      "rics": 8163,
      "ĠBased": 8164,
      "Ġrapidly": 8165,
      "ĠDefine": 8166,
      "Ã±": 8167,
      "GAT": 8168,
      "ĠElizabeth": 8169,
      "Ġeggs": 8170,
      "uling": 8171,
      "Time": 8172,
      "ĠDecision": 8173,
      "rec": 8174,
      "ĠColl": 8175,
      "ĠBroad": 8176,
      "Ġgallery": 8177,
      "ĠDemocratic": 8178,
      "Ġbroadcast": 8179,
      "athy": 8180,
      "Ġunus": 8181,
      "Ġprinting": 8182,
      "ĠGovernor": 8183,
      "lections": 8184,
      "etts": 8185,
      "Ġoperated": 8186,
      "ERS": 8187,
      "Ġwra": 8188,
      "Ġfaces": 8189,
      "Ġcollaboration": 8190,
      "Ġvul": 8191,
      "ington": 8192,
      "Ġfitness": 8193,
      "Ġconsiderable": 8194,
      "ĠBell": 8195,
      "Ġ400": 8196,
      "Ġsculpt": 8197,
      "acle": 8198,
      "ĠBern": 8199,
      "Ġsettled": 8200,
      "ĠCreek": 8201,
      "ĠSteve": 8202,
      "Ġneighb": 8203,
      "Ġlists": 8204,
      "Ġfrequency": 8205,
      "Ġ1989": 8206,
      "Ġemotional": 8207,
      "Ġpassword": 8208,
      "']": 8209,
      "Ġimpressive": 8210,
      "Ġsatisfaction": 8211,
      "ĠCome": 8212,
      "ook": 8213,
      "Ġpreparation": 8214,
      "Ġchecks": 8215,
      "Ġadds": 8216,
      "ĠAff": 8217,
      "ologist": 8218,
      "Ġpersonnel": 8219,
      "person": 8220,
      "Ġdesigner": 8221,
      "iro": 8222,
      "Ġcoat": 8223,
      "Ġinvestors": 8224,
      "Ġsymbol": 8225,
      "ĠEngineering": 8226,
      "Ġgolf": 8227,
      ".;": 8228,
      "ĠLater": 8229,
      "ĠAuto": 8230,
      "ĠExperts": 8231,
      "Ġtank": 8232,
      "Ġproducer": 8233,
      "Ġcareful": 8234,
      "Ġawareness": 8235,
      "Ġ->": 8236,
      "ÑģÑĤ": 8237,
      "Ġstir": 8238,
      "Ġlistening": 8239,
      "FF": 8240,
      "ti": 8241,
      "ĠShan": 8242,
      "Ġpercentage": 8243,
      "Ġ64": 8244,
      "Ġrural": 8245,
      "Col": 8246,
      "Ġtalent": 8247,
      "ĠColumbia": 8248,
      "kers": 8249,
      "Ġrecognize": 8250,
      "urse": 8251,
      "Ġcorrectly": 8252,
      "owned": 8253,
      "Ġcrisis": 8254,
      "Ġexpectations": 8255,
      "urches": 8256,
      "Ġroyal": 8257,
      "Ġmista": 8258,
      "Cont": 8259,
      "ĠDuke": 8260,
      "Ġrisks": 8261,
      "ĠSche": 8262,
      "ĠSn": 8263,
      "08": 8264,
      "Ġrecommendations": 8265,
      "Ġoutstanding": 8266,
      "bell": 8267,
      "ĠLocal": 8268,
      "ĠWHERE": 8269,
      "Ġspir": 8270,
      "ĠPut": 8271,
      "Ġhappening": 8272,
      "made": 8273,
      "remony": 8274,
      "Ġje": 8275,
      "Ġfolder": 8276,
      "athered": 8277,
      "Ġevident": 8278,
      "Ġmarks": 8279,
      "ĠJustice": 8280,
      "ĠSH": 8281,
      "ĠTar": 8282,
      "valid": 8283,
      "rison": 8284,
      "ĠDC": 8285,
      "Ġconsistent": 8286,
      "Ð¼": 8287,
      "Ġproducing": 8288,
      "Ġarrive": 8289,
      "ĠModern": 8290,
      "peror": 8291,
      "Ġtowns": 8292,
      "rist": 8293,
      "Ġbell": 8294,
      "Ġequipped": 8295,
      "Type": 8296,
      "ĠNotes": 8297,
      "imal": 8298,
      "Ġlessons": 8299,
      "cut": 8300,
      "Ġmaintained": 8301,
      "ĠDigital": 8302,
      "Ġcalm": 8303,
      "Ġthirty": 8304,
      "Ġhosting": 8305,
      "ographic": 8306,
      "Ġfasc": 8307,
      "Ġrecognition": 8308,
      "ieties": 8309,
      "umer": 8310,
      "hs": 8311,
      "ĠTransport": 8312,
      "Ġnetworks": 8313,
      "oes": 8314,
      "apore": 8315,
      "Ġspin": 8316,
      "foot": 8317,
      "Ġmand": 8318,
      "stein": 8319,
      "ĠPrime": 8320,
      "arios": 8321,
      "||": 8322,
      "Ġtrem": 8323,
      "ĠRog": 8324,
      "Ġpride": 8325,
      "Ġanticip": 8326,
      "don": 8327,
      "ĠVideo": 8328,
      "Ġyard": 8329,
      "ĠMA": 8330,
      "Ġremem": 8331,
      "Ġrealized": 8332,
      "Ġwashing": 8333,
      "mers": 8334,
      "dney": 8335,
      "ĠUnfortunately": 8336,
      "](": 8337,
      "Ġcorresponding": 8338,
      "Ġcriteria": 8339,
      "Ġclimb": 8340,
      "Ġblocks": 8341,
      "Ġmanufacturer": 8342,
      "Ġlisting": 8343,
      "Ġordinary": 8344,
      "Ġclar": 8345,
      "riate": 8346,
      "ĠWatch": 8347,
      "ref": 8348,
      "Ġloans": 8349,
      "ali": 8350,
      "Ġtum": 8351,
      "ĠSem": 8352,
      "var": 8353,
      "ĠSky": 8354,
      "Ġlawyer": 8355,
      "Ġtrim": 8356,
      "ĠSoviet": 8357,
      "Ġclubs": 8358,
      "ĠConnect": 8359,
      "Ġrailway": 8360,
      "$,": 8361,
      "Ġalgorith": 8362,
      "otal": 8363,
      "Ġera": 8364,
      "Ġdealing": 8365,
      "sters": 8366,
      "Ġ1988": 8367,
      "ĠGallery": 8368,
      "âĦ¢": 8369,
      "ĠColorado": 8370,
      "Ġmad": 8371,
      "km": 8372,
      "Ġhole": 8373,
      "Ġelectrical": 8374,
      "ĠAirport": 8375,
      "Ġtransparency": 8376,
      "Ġmanagers": 8377,
      "elle": 8378,
      "ĠArea": 8379,
      "Ġcounsel": 8380,
      "Ġfru": 8381,
      "Ġchoosing": 8382,
      "Ġnewspaper": 8383,
      "Ġbold": 8384,
      "Ġcos": 8385,
      "Ġvibr": 8386,
      "Ġmovies": 8387,
      "ĠPers": 8388,
      "ĠSite": 8389,
      "tray": 8390,
      "PC": 8391,
      "Ġfifth": 8392,
      "Ġhes": 8393,
      "Ġvert": 8394,
      "ĠIV": 8395,
      "tu": 8396,
      "Ġ1950": 8397,
      "Ġgender": 8398,
      "Ġexposure": 8399,
      "ĠBuilding": 8400,
      "ystem": 8401,
      "06": 8402,
      "Ġprospect": 8403,
      "Ġfiled": 8404,
      "Ġinterpret": 8405,
      "yo": 8406,
      "Ġconstructed": 8407,
      "ĠSafety": 8408,
      "Ġfing": 8409,
      "achusetts": 8410,
      "van": 8411,
      "Ġhealthcare": 8412,
      "Ġmurder": 8413,
      "Ġinch": 8414,
      "Ġmining": 8415,
      "Ġreject": 8416,
      "ĠReport": 8417,
      "Ġpocket": 8418,
      "ĠKim": 8419,
      "Ġdrew": 8420,
      "Ġcovering": 8421,
      "Ġpounds": 8422,
      "ĠBath": 8423,
      "eness": 8424,
      "ĠPoint": 8425,
      "Ġmixture": 8426,
      "Ġcrusher": 8427,
      "Ġtransaction": 8428,
      "Ġalive": 8429,
      "ĠLearn": 8430,
      "Ġequivalent": 8431,
      "ario": 8432,
      "Ġham": 8433,
      "Ġmembership": 8434,
      "Ġweekly": 8435,
      "Ġdestroyed": 8436,
      "ĠDeath": 8437,
      "Ġdynamic": 8438,
      "sen": 8439,
      "leep": 8440,
      "Ġsuffer": 8441,
      "Ġapparently": 8442,
      "Ġtender": 8443,
      "track": 8444,
      "ĠExecutive": 8445,
      "Ġfootballers": 8446,
      "Ġattra": 8447,
      "Ġbottle": 8448,
      "Ġwatched": 8449,
      "olved": 8450,
      "zes": 8451,
      "Ne": 8452,
      "Ġchecking": 8453,
      "Ġpassage": 8454,
      "App": 8455,
      "ĠFC": 8456,
      "ĠCR": 8457,
      "Ġshooting": 8458,
      "čĊ": 8459,
      "Ġelections": 8460,
      "Ġearning": 8461,
      "ĠKorea": 8462,
      "ĠOxford": 8463,
      "ĠWalk": 8464,
      "Ġfool": 8465,
      "hol": 8466,
      "Ġmanaging": 8467,
      "Ġgraduate": 8468,
      "Ġnomin": 8469,
      "people": 8470,
      "ĠWas": 8471,
      "Ġentitled": 8472,
      "Ġpod": 8473,
      "ĠProfessionals": 8474,
      "Ġthoroughly": 8475,
      "ĠOs": 8476,
      "reprene": 8477,
      "ĠProfessional": 8478,
      "Ġseriously": 8479,
      "ĠFriend": 8480,
      "Ġmonitor": 8481,
      "star": 8482,
      "ĠYe": 8483,
      "after": 8484,
      "Ġrevolution": 8485,
      "ĠBeing": 8486,
      "Ġflying": 8487,
      "lessly": 8488,
      "Ġshops": 8489,
      "76": 8490,
      "ĠAnton": 8491,
      "ĠPot": 8492,
      "Ġraw": 8493,
      "====": 8494,
      "Ġflexible": 8495,
      "ĠReturn": 8496,
      "ĠEnvironment": 8497,
      "Ġther": 8498,
      "American": 8499,
      "Ġeveryday": 8500,
      "Ġexhibition": 8501,
      "Ġequally": 8502,
      "Ġwave": 8503,
      "Ġreply": 8504,
      "usal": 8505,
      "ĠEX": 8506,
      "()`": 8507,
      "aud": 8508,
      "Ġoverw": 8509,
      "Ġhurt": 8510,
      "Ġhosted": 8511,
      "GE": 8512,
      "ĠLooking": 8513,
      "Ð´": 8514,
      "MP": 8515,
      "Ġresearchers": 8516,
      "Ġinnovation": 8517,
      "Ġlimits": 8518,
      "Ġplatforms": 8519,
      "ĠTam": 8520,
      "Ġbass": 8521,
      "ilton": 8522,
      "ĠComput": 8523,
      "ĠFord": 8524,
      "idays": 8525,
      "Ġplanet": 8526,
      "iler": 8527,
      "Ġok": 8528,
      "Level": 8529,
      "Ġchallenging": 8530,
      "ĠMassachusetts": 8531,
      "rim": 8532,
      "Ġprinciple": 8533,
      "ĠSilver": 8534,
      "Ġpreferred": 8535,
      "gian": 8536,
      "Ġnode": 8537,
      "ĠHarry": 8538,
      "Ġocean": 8539,
      "ĠForest": 8540,
      "onder": 8541,
      "Ġroads": 8542,
      "Ġsatisfied": 8543,
      "Ġsubmitted": 8544,
      "ĠTravel": 8545,
      "Ġpublication": 8546,
      "Ġdiscip": 8547,
      "Ġbeer": 8548,
      "Ġcategories": 8549,
      "ĠKenn": 8550,
      "Ġguarante": 8551,
      "Ġ49": 8552,
      "Ġpointed": 8553,
      "Ġ>=": 8554,
      "Ġfalling": 8555,
      "Ġmoon": 8556,
      "ĠBox": 8557,
      "ĠUnivers": 8558,
      "Ġsuggests": 8559,
      "rove": 8560,
      "ĠKong": 8561,
      "Ġinjuries": 8562,
      "Ġkit": 8563,
      "Ġsentence": 8564,
      "arest": 8565,
      "ĠTheatre": 8566,
      "ection": 8567,
      "Ġrequests": 8568,
      "Ġpharm": 8569,
      "Ġgarage": 8570,
      "ĠMess": 8571,
      "Ġstrongly": 8572,
      "Ġhopes": 8573,
      "ocked": 8574,
      "Ġstrike": 8575,
      "ĠScottish": 8576,
      "ĠRepublican": 8577,
      "idity": 8578,
      "esty": 8579,
      "Ġexposed": 8580,
      "Ġtooth": 8581,
      "Ġmonitoring": 8582,
      "ĠTa": 8583,
      "olis": 8584,
      "erring": 8585,
      "Ġsettlement": 8586,
      "Ġsecondary": 8587,
      "ĠÐ¸": 8588,
      "ĠLind": 8589,
      "Ġquote": 8590,
      "oding": 8591,
      "Ġmanif": 8592,
      "Ġentreprene": 8593,
      "ĠHong": 8594,
      "ĠâĶ": 8595,
      "ĠBridge": 8596,
      "Ġexpansion": 8597,
      "inson": 8598,
      "Ġ38": 8599,
      "ĠAL": 8600,
      "ĠBor": 8601,
      "ĠCountry": 8602,
      "Ġlifestyle": 8603,
      "Ġpulled": 8604,
      "DS": 8605,
      "Ġ2023": 8606,
      "ĠStudies": 8607,
      "Ġmagic": 8608,
      "ĠGarden": 8609,
      "ĠVar": 8610,
      "pton": 8611,
      "hum": 8612,
      "lend": 8613,
      "Ġimproving": 8614,
      "Ġframework": 8615,
      "Ġpainted": 8616,
      "Ġflower": 8617,
      "rovers": 8618,
      "phia": 8619,
      "ĠPrice": 8620,
      "ĠSydney": 8621,
      "Ġpleasant": 8622,
      "ĠBattle": 8623,
      "Ġpresents": 8624,
      "ĠFarm": 8625,
      "Ġbuff": 8626,
      "Ġmillions": 8627,
      "iour": 8628,
      "Ġattorney": 8629,
      "cular": 8630,
      "Ġhospit": 8631,
      "Ġille": 8632,
      "Ġtip": 8633,
      ";\"": 8634,
      "Script": 8635,
      "Ġsavings": 8636,
      "Ġ42": 8637,
      "Ġconfident": 8638,
      "rog": 8639,
      "ran": 8640,
      "ĠWebs": 8641,
      "Ġapproval": 8642,
      "72": 8643,
      "ween": 8644,
      "reshold": 8645,
      "Ġparameters": 8646,
      "ĠAlexander": 8647,
      "terior": 8648,
      "Ġfolks": 8649,
      "orgeous": 8650,
      "TE": 8651,
      "orous": 8652,
      "RS": 8653,
      "Ġtack": 8654,
      "Ġwidt": 8655,
      "Ġupcoming": 8656,
      "document": 8657,
      "Ġscenarios": 8658,
      "ĠBE": 8659,
      "Ġfur": 8660,
      "erted": 8661,
      "ĠVictoria": 8662,
      "tense": 8663,
      "Ġdocumentation": 8664,
      "ĠIce": 8665,
      "ĠRos": 8666,
      "Ġtil": 8667,
      "Ġtwelve": 8668,
      "Ġcertified": 8669,
      "Ġcircle": 8670,
      "ĠDam": 8671,
      "Ġcommunications": 8672,
      "Ġtaxes": 8673,
      "Ġsections": 8674,
      "ĠStone": 8675,
      "issions": 8676,
      "ĠMuslim": 8677,
      "Ġoutline": 8678,
      "ials": 8679,
      "Ġengineer": 8680,
      "asty": 8681,
      "non": 8682,
      "Ġassistant": 8683,
      "Low": 8684,
      "Ġhoriz": 8685,
      "Ġsemi": 8686,
      "Ġloose": 8687,
      "bin": 8688,
      "ĠShort": 8689,
      "Ġamongst": 8690,
      "Ġentering": 8691,
      "Ġsorry": 8692,
      "ĠKar": 8693,
      "ULL": 8694,
      "nis": 8695,
      "ĠStock": 8696,
      "Ġwondering": 8697,
      "front": 8698,
      "alo": 8699,
      "Ġdent": 8700,
      "Ġfactory": 8701,
      "Ġperce": 8702,
      "rooms": 8703,
      "Ġhabits": 8704,
      "roke": 8705,
      "She": 8706,
      "ĠSupport": 8707,
      "ĠStudio": 8708,
      "ji": 8709,
      "ĠAvenue": 8710,
      "profit": 8711,
      "Ġshift": 8712,
      "Ġjoining": 8713,
      "Ġbless": 8714,
      "Ġbran": 8715,
      "Ġbonus": 8716,
      "Ġrequested": 8717,
      "ĠViet": 8718,
      "ĠLew": 8719,
      "Ġsed": 8720,
      "anted": 8721,
      "Ġrepresentative": 8722,
      "Ġeverywhere": 8723,
      "tempts": 8724,
      "Ġphotography": 8725,
      "Ġenforce": 8726,
      "stal": 8727,
      "Ġjew": 8728,
      "Ġrefused": 8729,
      "Ġtab": 8730,
      "uma": 8731,
      "Ġcontrolled": 8732,
      "vi": 8733,
      "ĠSingapore": 8734,
      "ĠTreat": 8735,
      "acon": 8736,
      "Ġnations": 8737,
      "Ġexhaust": 8738,
      "ĠCount": 8739,
      "Ġongoing": 8740,
      "Ġlegisl": 8741,
      "Ġamend": 8742,
      "adelphia": 8743,
      "Ġpm": 8744,
      "Ġenroll": 8745,
      "ãĢ": 8746,
      "ĠVin": 8747,
      "Ġgenuine": 8748,
      "Ġvend": 8749,
      "ĠJr": 8750,
      "Ġstrategic": 8751,
      "Ġceremony": 8752,
      "Ġgolden": 8753,
      "TV": 8754,
      "thro": 8755,
      "Ġcelebrate": 8756,
      "Ġretr": 8757,
      "ĠUser": 8758,
      "Ġbehalf": 8759,
      "Ġcaptured": 8760,
      "Ġcontribute": 8761,
      "Ġresidence": 8762,
      "Ġreporting": 8763,
      "Ġshore": 8764,
      "ĠName": 8765,
      "Ġpowder": 8766,
      "Ġenterprise": 8767,
      "idt": 8768,
      "Ġmanufacturers": 8769,
      "tie": 8770,
      "ĠToronto": 8771,
      "Ġshoulder": 8772,
      "holders": 8773,
      "iversary": 8774,
      "Ġrice": 8775,
      "Ġreaching": 8776,
      "Ġ1987": 8777,
      "Ġrele": 8778,
      "Ġ![": 8779,
      "ĠMean": 8780,
      "Ġmoral": 8781,
      "74": 8782,
      "ĠEarl": 8783,
      "ĠDor": 8784,
      "ĠContin": 8785,
      "Ġloud": 8786,
      "Ġnom": 8787,
      "ĠBad": 8788,
      "Ġprayer": 8789,
      "Ġyours": 8790,
      "ĠPur": 8791,
      "folio": 8792,
      "%,": 8793,
      "ĠMinistry": 8794,
      "Ġfinance": 8795,
      "Ġunexpected": 8796,
      "Ġhide": 8797,
      "At": 8798,
      "Ġreduction": 8799,
      "jection": 8800,
      "ĠRepresent": 8801,
      "ĠCS": 8802,
      "LA": 8803,
      "Ind": 8804,
      "Ġuncle": 8805,
      "Ġtalked": 8806,
      "post": 8807,
      "tired": 8808,
      "\").": 8809,
      "Ġhttps": 8810,
      "Ġactress": 8811,
      "Ġcolumns": 8812,
      "Ġtitles": 8813,
      "ĠArm": 8814,
      "onds": 8815,
      "ailable": 8816,
      "ĠCook": 8817,
      "pace": 8818,
      "Ġconnections": 8819,
      "Write": 8820,
      "ĠTit": 8821,
      "ĠCorporation": 8822,
      "Ġ1986": 8823,
      "Ġchannels": 8824,
      "56": 8825,
      "Ġphilosophy": 8826,
      "Ġtrop": 8827,
      "ige": 8828,
      "ĠIslands": 8829,
      "Ġcrucial": 8830,
      "ĠCub": 8831,
      "Ġsuggestions": 8832,
      "Ġscores": 8833,
      "ĠBand": 8834,
      "bow": 8835,
      "mann": 8836,
      "isp": 8837,
      "ĠCustom": 8838,
      "ĠPin": 8839,
      "ĠTaylor": 8840,
      "Ġsilence": 8841,
      "ĠAh": 8842,
      "ĠLie": 8843,
      "hreshold": 8844,
      "ima": 8845,
      "Ġstunning": 8846,
      "neys": 8847,
      "Hy": 8848,
      "Ġinvolves": 8849,
      "ĠSection": 8850,
      "bourne": 8851,
      "ĠFun": 8852,
      "Ġduties": 8853,
      "ĠQuest": 8854,
      "Ġdisplays": 8855,
      "Or": 8856,
      "avas": 8857,
      "ĠExpress": 8858,
      "Ġrecover": 8859,
      "Ġkeys": 8860,
      "cs": 8861,
      "ĠâĶĤ": 8862,
      "ĠAssist": 8863,
      "ĠWithout": 8864,
      "Ġpossession": 8865,
      "tong": 8866,
      "Ġprintln": 8867,
      "Ġmoves": 8868,
      "ears": 8869,
      "Ġeager": 8870,
      "ĠBerlin": 8871,
      "Ġteen": 8872,
      "Ġsmoke": 8873,
      "Ġlowest": 8874,
      "Ġdreams": 8875,
      "ĠGolden": 8876,
      "Ġimplements": 8877,
      "step": 8878,
      "REE": 8879,
      "Ġprovince": 8880,
      "Ġcontrols": 8881,
      "Ġformation": 8882,
      "Ġnecessarily": 8883,
      "73": 8884,
      "Ġpreced": 8885,
      "ureau": 8886,
      "Ġboxes": 8887,
      "oln": 8888,
      "ĠNap": 8889,
      "Ġhappiness": 8890,
      "ĠDate": 8891,
      "ĠBru": 8892,
      "Ġremarkable": 8893,
      "ĠNick": 8894,
      "Ġrend": 8895,
      "ĠCommunic": 8896,
      "Ġinstruction": 8897,
      "cribed": 8898,
      "cr": 8899,
      "iki": 8900,
      "Ġreducing": 8901,
      "Ġdefeated": 8902,
      "ĠCareer": 8903,
      "CD": 8904,
      "ĠUpdate": 8905,
      "ĠÑ": 8906,
      "Ġprovision": 8907,
      "function": 8908,
      "ĠMother": 8909,
      "Ġtired": 8910,
      "ĠChampionships": 8911,
      "BI": 8912,
      "ashes": 8913,
      "orters": 8914,
      "ĠPrint": 8915,
      "ĠInit": 8916,
      "wed": 8917,
      "TML": 8918,
      "Ġterritory": 8919,
      "53": 8920,
      "ĠPrin": 8921,
      "irts": 8922,
      "aska": 8923,
      "Ġending": 8924,
      "isdom": 8925,
      "Ġsituated": 8926,
      "Ġlikes": 8927,
      "54": 8928,
      "hrown": 8929,
      "vals": 8930,
      "58": 8931,
      "ĠEss": 8932,
      "agen": 8933,
      "acter": 8934,
      "CAC": 8935,
      "ĠLes": 8936,
      "Ġcoc": 8937,
      "rous": 8938,
      "ĠFox": 8939,
      "ĠSupreme": 8940,
      "Ġ1984": 8941,
      "ormal": 8942,
      "ĠBooks": 8943,
      "Ġcircuit": 8944,
      "Ġol": 8945,
      "Ġparameter": 8946,
      "Ġanxiety": 8947,
      "ourse": 8948,
      "pir": 8949,
      "iot": 8950,
      "Ġmeets": 8951,
      "Ġstuck": 8952,
      "ĠIra": 8953,
      "ĠPict": 8954,
      "Ġactors": 8955,
      "Ġrecip": 8956,
      "Ġec": 8957,
      "lights": 8958,
      "Ġamounts": 8959,
      "Ġattractive": 8960,
      "Ġvacation": 8961,
      "Ġfaced": 8962,
      "Ġcotton": 8963,
      "Ġlips": 8964,
      "thrown": 8965,
      "ĠSystems": 8966,
      "Ġdecade": 8967,
      "fig": 8968,
      "Ġretirement": 8969,
      "Ġwidth": 8970,
      "Ġswimming": 8971,
      "Ġintent": 8972,
      "ĠBeginners": 8973,
      "ĠCP": 8974,
      "Ġnest": 8975,
      "ĠHay": 8976,
      "eav": 8977,
      "ĠHu": 8978,
      "Ġrender": 8979,
      "Ġsensitive": 8980,
      "Ġattempts": 8981,
      "Ġconvin": 8982,
      "Ġdrinking": 8983,
      "ĠFer": 8984,
      "including": 8985,
      "Ġbreaking": 8986,
      "ĠPhiladelphia": 8987,
      "wich": 8988,
      "Ġbench": 8989,
      "Ġsilent": 8990,
      "ĠGuard": 8991,
      "ĠRailway": 8992,
      "Ġcurious": 8993,
      "ĠBuy": 8994,
      "xx": 8995,
      "pection": 8996,
      "Ġstable": 8997,
      "Ġtwe": 8998,
      "Ġoccupied": 8999,
      "Ġtemporary": 9000,
      "Ġalter": 9001,
      "igent": 9002,
      "idae": 9003,
      "Ġcow": 9004,
      "quarters": 9005,
      "ĠStephen": 9006,
      "quis": 9007,
      "ĠAz": 9008,
      "Ġpink": 9009,
      "Ġcontents": 9010,
      "vol": 9011,
      "Ġscenes": 9012,
      "Ġ44": 9013,
      "ruption": 9014,
      "dri": 9015,
      "pher": 9016,
      "Ġfinger": 9017,
      "code": 9018,
      "arer": 9019,
      "Ġinvolving": 9020,
      "Ġbrilliant": 9021,
      "Ġbars": 9022,
      "Ġsetup": 9023,
      "Ġ^": 9024,
      "à¸": 9025,
      "Ġviewed": 9026,
      "ĠHind": 9027,
      "ateful": 9028,
      "Ġquantity": 9029,
      "oms": 9030,
      "Ġconsumption": 9031,
      "Ġtrends": 9032,
      "ĠAk": 9033,
      "Ġtears": 9034,
      "Ġstatistics": 9035,
      "ĠHas": 9036,
      "Why": 9037,
      "liers": 9038,
      "ĠURL": 9039,
      "Ġ1985": 9040,
      "Ġslot": 9041,
      "III": 9042,
      "iac": 9043,
      "Ġcodes": 9044,
      "Ġsequence": 9045,
      "iary": 9046,
      "Ġtransferred": 9047,
      "Ġalarm": 9048,
      "ĠFre": 9049,
      "Ġadmitted": 9050,
      "Ġcontinuing": 9051,
      "look": 9052,
      "ĠHou": 9053,
      "Ġopposition": 9054,
      "Ġspoken": 9055,
      "Ġreaction": 9056,
      "Ġforever": 9057,
      "zona": 9058,
      "Ġdeeply": 9059,
      "ĠAlp": 9060,
      "HS": 9061,
      "Ġarranged": 9062,
      "ĠSU": 9063,
      "Ġcontinuous": 9064,
      "Ġflash": 9065,
      "amental": 9066,
      "eting": 9067,
      "Ð¾Ð²": 9068,
      "Ġindustries": 9069,
      "Ġscope": 9070,
      "Ġprivile": 9071,
      "Ġcompat": 9072,
      "igate": 9073,
      "New": 9074,
      "Ġattach": 9075,
      "Ġopposed": 9076,
      "Ġgrey": 9077,
      "Ġprize": 9078,
      "Ġ~": 9079,
      "Ġpitch": 9080,
      "wall": 9081,
      "ĠCru": 9082,
      "Ġpasses": 9083,
      "ĠMarg": 9084,
      "=#": 9085,
      "ĠDoctor": 9086,
      "71": 9087,
      "Ġdiff": 9088,
      "Ġhills": 9089,
      "Ġformula": 9090,
      "Ġstages": 9091,
      "Ġfunctional": 9092,
      "Ġhydro": 9093,
      ")-": 9094,
      "Ġsurrounded": 9095,
      "NS": 9096,
      "Ġguidelines": 9097,
      "CO": 9098,
      "Ġestablishments": 9099,
      "Ġrough": 9100,
      "Ġmeals": 9101,
      "Ġisol": 9102,
      "aters": 9103,
      "path": 9104,
      "ĠMobile": 9105,
      "ĠSab": 9106,
      "Ġbrothers": 9107,
      "Ġoutcome": 9108,
      ",âĢĻ": 9109,
      "Ġneut": 9110,
      "Ġcabinet": 9111,
      "Ġlogo": 9112,
      "ĠHung": 9113,
      "tains": 9114,
      "Ġhearts": 9115,
      "':": 9116,
      "Ġconfiguration": 9117,
      "Ġmere": 9118,
      "Ġchecked": 9119,
      "ĠEnjoy": 9120,
      "Ġavailability": 9121,
      "Ad": 9122,
      "ificial": 9123,
      "Ġmas": 9124,
      "Ġplane": 9125,
      "Ġcommunicate": 9126,
      "ĠNatural": 9127,
      "Ġmistake": 9128,
      "Ġĉĉ": 9129,
      "ĠNeed": 9130,
      "ĠAdam": 9131,
      "Ġweapons": 9132,
      "Ġprominent": 9133,
      "Ġuncom": 9134,
      "Ġmargin": 9135,
      "Ġ120": 9136,
      "Ġsquad": 9137,
      "ĠFac": 9138,
      "ĠÐº": 9139,
      "Ġfrequent": 9140,
      "Ġconclusion": 9141,
      "bey": 9142,
      "Ġintense": 9143,
      "Ġtissue": 9144,
      "ĠGuide": 9145,
      "ĠTurk": 9146,
      "alty": 9147,
      "acious": 9148,
      "52": 9149,
      "Ġimpression": 9150,
      "sl": 9151,
      "cific": 9152,
      "Ġdiseases": 9153,
      "Ġpolitician": 9154,
      "Ġsingles": 9155,
      "Ġparalle": 9156,
      "ordinary": 9157,
      "aine": 9158,
      "ĠWrite": 9159,
      "Ġoven": 9160,
      "Ġworship": 9161,
      "Ġeligible": 9162,
      "htt": 9163,
      "tock": 9164,
      "Ġeastern": 9165,
      "Ġsolo": 9166,
      "ĠBab": 9167,
      "Ġlegislation": 9168,
      "Ġsinging": 9169,
      "Ġworkshop": 9170,
      "ĠCastle": 9171,
      "Ġterrible": 9172,
      "ells": 9173,
      "ĠCer": 9174,
      "Ġconcert": 9175,
      "Of": 9176,
      "ĠTR": 9177,
      "Ġaffairs": 9178,
      "Ġhoping": 9179,
      "Ġproposal": 9180,
      "ĠRemember": 9181,
      "racy": 9182,
      "Ġapproaches": 9183,
      "ĠDisney": 9184,
      "Ġjun": 9185,
      "ĠBrad": 9186,
      "iche": 9187,
      "ĠKat": 9188,
      "ĠStat": 9189,
      "ĠRand": 9190,
      "ĠBrook": 9191,
      "Ġexped": 9192,
      "Ġstake": 9193,
      "ĠWilson": 9194,
      "ĠLabor": 9195,
      "Ġboot": 9196,
      "aux": 9197,
      "inton": 9198,
      "ĠBarb": 9199,
      "Ġbone": 9200,
      "organ": 9201,
      "Ġassembly": 9202,
      "inch": 9203,
      "ĠHistoric": 9204,
      "looking": 9205,
      "tario": 9206,
      "ĠPract": 9207,
      "ĠJane": 9208,
      "Ġsamples": 9209,
      "Ġregarded": 9210,
      "Ġears": 9211,
      "zed": 9212,
      "isa": 9213,
      "Ġ($": 9214,
      "ĠWinter": 9215,
      "pany": 9216,
      "ĠÐ¾": 9217,
      "Ġmaintaining": 9218,
      "ĠPrim": 9219,
      "âĢĻ,": 9220,
      "Ġsons": 9221,
      "ĠPS": 9222,
      "Ġlayout": 9223,
      "LY": 9224,
      "ĠRef": 9225,
      "ĠRegister": 9226,
      "actory": 9227,
      "ifier": 9228,
      "Ġraces": 9229,
      "ĠIndepend": 9230,
      "anny": 9231,
      "Tube": 9232,
      "Ġapplying": 9233,
      "Ġrecy": 9234,
      "Ġshouldn": 9235,
      "php": 9236,
      "Ġphenomen": 9237,
      "Ġpace": 9238,
      "Ġprime": 9239,
      "Ġcomposition": 9240,
      "atin": 9241,
      "ĠLE": 9242,
      "Ġgathered": 9243,
      "Ġsees": 9244,
      "Ġtreatments": 9245,
      "Ġclosing": 9246,
      "Ġspark": 9247,
      "Ġoverwhel": 9248,
      "Ġmuscle": 9249,
      "Ġengines": 9250,
      "Ġbags": 9251,
      "Ġbeneath": 9252,
      "');": 9253,
      "Man": 9254,
      "Ġofficially": 9255,
      "Ġaccomplish": 9256,
      "ĠTraining": 9257,
      "Ġsubsequent": 9258,
      "Ġabund": 9259,
      "Ġimplemented": 9260,
      "ĠSelect": 9261,
      "ĠRen": 9262,
      "Ġproven": 9263,
      "ĠFlo": 9264,
      "erts": 9265,
      "ĠNon": 9266,
      "Ġmemories": 9267,
      "Ġaccompanied": 9268,
      "Ġwing": 9269,
      "cia": 9270,
      "ĠRon": 9271,
      "Ġindicated": 9272,
      "Ġincreasingly": 9273,
      "Ġsustainable": 9274,
      ":\"": 9275,
      "},": 9276,
      "ĠStore": 9277,
      "Ġadministrative": 9278,
      "Ġcharacteristics": 9279,
      "earing": 9280,
      "ĠEns": 9281,
      "Ġultimate": 9282,
      "antry": 9283,
      "Ġhumans": 9284,
      "Ġdesp": 9285,
      "Ġabsence": 9286,
      "ĠIndians": 9287,
      "iry": 9288,
      "Ġcopies": 9289,
      "Ġstronger": 9290,
      "Ġrenov": 9291,
      "Ġinval": 9292,
      "Ġfounder": 9293,
      "regon": 9294,
      "ĠSenior": 9295,
      "stract": 9296,
      "Ġdevelopers": 9297,
      "incoln": 9298,
      "olid": 9299,
      "Ġperformances": 9300,
      "ĠMilitary": 9301,
      "hrop": 9302,
      "ITH": 9303,
      "Ġinjured": 9304,
      "rad": 9305,
      "Ġvisits": 9306,
      "Ġcolours": 9307,
      "ĠShop": 9308,
      "Ġregardless": 9309,
      "Ġhence": 9310,
      "Ġinteract": 9311,
      "Ġguns": 9312,
      "Ġheavily": 9313,
      "Ġpiano": 9314,
      "Ġabroad": 9315,
      "mouth": 9316,
      "Ġdoctors": 9317,
      "ĠJews": 9318,
      "heim": 9319,
      "site": 9320,
      "Ġleaf": 9321,
      "Ġpromotion": 9322,
      "GA": 9323,
      "Ġapplicable": 9324,
      "onia": 9325,
      "Ġkil": 9326,
      "Ġexit": 9327,
      "Ġdemands": 9328,
      "Ġtong": 9329,
      "ĠWelcome": 9330,
      "ĠFinancial": 9331,
[...]
